7C
6E
0C
0B
79
05
03
6B
72
71
06
71
7D
79
7D
05
00
7E
04
7F
74
14
6B
13
07
0A
6F
6F
7A
14
7C
04
73
11
0B
01
6D
0F
76
03
08
0C
0B
00
6D
0E
0F
6B
6B
72
77
6D
71
71
0B
05
72
71
7E
7C
7D
74
15
02
17
6C
74
01
0F
79
6B
7F
0D
73
12
72
0C
13
78
0A
73
0E
72
00
70
7B
70
0F
6B
17
13
10
6C
02
71
10
7C
0C
6E
75
7F
72
7E
6D
7F
72
72
05
0E
09
11
7C
04
05
12
09
70
71
78
0D
0E
0A
16
09
09
6D
7A
71
0B
76
72
6E
18
13
0A
7C
7B
78
16
13
72
00
6C
0E
6E
03
0C
0B
6A
03
0C
05
16
73
78
73
0F
7E
78
15
0C
75
7E
08
09
09
7F
76
07
7A
15
79
78
02
70
7D
6E
76
08
7F
69
13
78
79
7A
06
7F
08
6D
04
7B
73
72
01
00
7A
08
6B
71
7F
6E
7A
7D
73
6D
07
11
07
08
05
7E
6C
15
03
72
0B
7D
04
11
6D
0A
0F
6A
6D
71
71
05
03
79
0A
06
79
79
74
76
6C
06
7A
7D
13
6A
0F
07
71
75
03
0F
76
72
12
75
06
7B
73
0E
76
10
06
0D
6A
7C
76
0C
71
02
07
7E
7B
10
77
7B
09
0B
0A
0A
0A
76
10
74
73
68
6E
73
15
73
75
10
70
04
0B
71
04
04
02
7B
79
0E
0A
02
6F
73
07
7F
71
0D
77
0F
73
6E
07
7D
0E
7B
14
0E
06
16
76
7B
6D
0A
10
72
06
01
15
6F
6E
6B
17
6B
78
13
75
6E
0B
6E
06
6E
7C
07
7E
71
09
70
70
70
09
11
7C
6C
18
14
69
7C
7B
09
6F
76
70
0D
71
79
10
72
71
77
10
76
73
05
0F
79
0B
79
6D
75
14
07
73
75
77
11
10
7A
01
0F
73
7F
0E
7B
7F
06
6B
77
14
08
71
7F
15
11
7B
6D
09
73
7F
75
6D
15
09
00
7B
7F
7E
6F
11
7B
12
0C
05
72
7C
00
0B
11
72
7C
03
69
10
71
02
79
6C
71
6A
06
0F
0D
69
76
05
6E
7E
6B
0B
71
08
7B
08
7F
7E
09
72
0C
03
14
03
09
06
74
0B
6C
07
10
14
15
08
7B
01
07
13
7D
78
7F
04
07
75
01
18
0B
70
7B
01
14
7D
08
00
0A
7F
0C
09
78
7A
7C
73
05
77
11
11
16
07
03
06
15
10
10
6B
0F
74
13
04
07
72
0B
78
16
6F
0B
7D
72
7C
0E
10
7E
70
71
72
6C
71
69
09
6B
0C
0A
6F
7B
70
1A
7B
7C
03
72
14
04
08
73
79
13
12
71
75
7A
12
6E
71
03
09
00
0B
7A
14
79
0D
76
71
6C
6B
6C
6D
11
7F
7A
79
0D
0F
0C
00
07
13
7E
0E
72
06
72
6A
07
07
0F
0C
6F
16
0F
72
6B
04
78
7B
0F
72
7A
0A
10
0B
73
08
0F
09
08
12
79
0F
7A
00
74
0F
7F
07
7F
74
00
75
07
09
04
7B
79
0E
7A
7C
00
78
77
12
03
03
78
08
04
6F
76
70
02
7A
6B
0E
0B
75
72
0E
75
05
6B
08
0F
01
6C
77
72
08
7F
76
74
6E
00
0D
6B
74
74
7E
6F
02
0F
70
76
70
7C
7F
10
03
0F
77
76
12
70
70
70
77
70
7C
01
05
11
05
7E
6D
7F
0E
07
73
75
10
03
71
04
10
0E
05
07
6E
7B
0C
7F
78
07
71
07
0A
0E
78
0C
06
6F
0D
05
09
06
0B
6D
72
77
71
0C
11
79
13
72
76
73
78
16
00
6C
05
7B
77
78
7D
7B
6B
77
16
73
03
72
6C
00
6E
6B
01
09
07
7D
11
05
7F
6F
73
00
79
05
0A
06
07
71
6E
6C
05
02
12
77
7E
0B
6A
73
13
74
6D
06
79
7B
6A
04
01
7E
7D
6B
02
76
71
78
12
7F
09
08
73
7A
72
13
7B
01
13
79
6C
11
7E
6F
18
71
0E
0D
78
6C
7D
05
7A
13
6F
7B
71
0E
77
10
69
0E
6B
11
11
00
69
08
6C
6C
16
6E
6B
07
6D
09
05
0D
01
09
0D
6F
7D
06
01
01
77
01
70
0C
69
07
0A
70
0C
7D
07
10
0A
03
73
0B
09
7D
03
01
09
08
09
78
02
11
0F
13
0B
02
0B
07
15
70
6B
79
0A
09
7D
0A
0B
6F
04
79
73
0D
0D
7B
6B
02
7D
75
0B
78
13
03
7F
06
00
6C
6E
01
6E
07
00
13
6B
7F
78
04
10
78
0C
00
0F
7B
0D
06
14
17
72
13
71
7B
0F
77
6C
0A
79
12
16
6B
7F
75
0C
07
77
06
6C
79
17
6E
06
09
74
72
6E
17
6B
79
76
08
79
14
7F
04
7F
7F
09
08
06
05
72
0F
10
12
05
12
07
0A
0F
12
0A
10
7F
7E
6E
14
6A
7D
0D
07
14
79
00
6A
78
09
10
70
6C
01
04
71
6B
07
6B
77
71
03
77
13
0C
73
06
0A
6F
78
11
71
0A
06
75
74
7C
7B
7D
04
10
78
08
7C
7D
0E
74
76
11
7A
7B
75
69
6E
7A
7E
6D
73
11
74
7C
74
7B
79
7A
6C
7E
03
74
7E
6B
75
00
73
17
7F
7C
7E
73
72
75
15
76
70
78
0C
7D
6A
72
6A
7E
69
6D
77
6D
04
7C
71
75
03
11
11
79
13
7D
10
7C
76
08
0D
69
74
7B
6C
01
13
75
77
7D
0C
7B
0D
05
70
0E
11
75
06
16
0F
05
6B
67
15
75
77
77
76
7F
07
03
6B
0F
75
07
6A
14
10
77
0E
0C
7A
00
6F
0E
0B
10
6B
6F
15
0F
6C
0D
7F
04
08
06
14
0D
72
7B
05
75
03
10
04
6F
7D
0A
06
0C
19
04
6E
10
0F
0A
00
0E
74
0F
6B
0A
79
7C
7A
75
77
76
7E
0D
14
0D
79
01
11
79
6F
6B
79
78
79
04
07
79
09
09
0D
05
00
73
77
00
09
6C
71
03
7E
05
0A
01
7D
0A
00
04
10
6B
78
7E
07
13
06
76
7D
6F
0D
16
6D
6C
06
75
05
71
74
7F
70
6A
0E
7C
77
05
12
73
0A
1D
78
00
70
6B
78
76
77
19
08
72
03
78
7B
0C
02
73
7D
73
6A
11
0B
01
10
0A
0E
73
12
0E
12
71
10
13
10
03
7F
6F
0D
13
03
02
6C
70
0B
10
06
02
7B
12
7A
01
09
10
74
6D
6D
09
04
79
7E
09
01
03
09
7C
70
7C
7A
6C
0C
7C
10
7D
0D
7A
6F
0F
7C
7A
00
6C
09
08
78
75
06
00
7D
09
12
6A
6C
7B
6E
7B
75
0D
7D
79
11
77
6A
74
77
07
69
08
14
70
6C
11
78
0C
07
6D
77
03
04
78
05
7A
6F
6F
16
6D
04
0C
70
73
70
0B
7D
7F
77
10
76
0C
6B
10
05
00
76
18
14
04
07
71
03
75
71
10
77
14
09
69
0A
03
71
0F
73
71
02
06
16
0A
0F
70
7B
75
6A
70
71
10
72
7B
0C
7A
6E
6A
02
0C
6D
75
14
7D
0D
77
7C
07
7E
12
74
77
7F
7C
00
6A
06
70
0C
70
0D
6F
1B
03
11
0F
6C
70
12
79
79
0A
77
07
7B
0A
72
71
71
15
78
16
10
7E
7C
6C
0E
0D
6F
78
6B
79
6E
7D
0C
09
71
69
0B
7E
74
77
7A
77
0B
07
77
70
00
0B
75
11
75
11
03
0E
06
0B
06
04
70
6E
09
73
05
0D
7E
6D
72
16
11
0D
02
05
7C
7C
71
7F
7B
12
07
0A
15
69
77
7A
0A
6A
0A
0F
7A
6F
0F
7D
1B
07
76
79
0A
77
7D
78
08
0A
03
75
73
12
75
72
6B
78
04
71
7C
71
7C
71
7E
0F
12
0B
11
73
62
0B
7D
74
0D
09
10
7B
79
0D
07
05
05
64
77
02
12
6B
7A
66
65
14
6D
6E
6D
6F
7C
74
73
13
70
03
69
7F
0B
0E
7D
0F
15
00
10
16
09
02
71
78
6D
09
76
0B
75
00
0C
69
7E
13
13
1E
79
7A
09
07
73
7C
0A
07
73
6D
0C
7F
11
7A
7E
78
07
70
10
05
73
7A
72
0D
0A
7C
72
6A
71
78
0C
7C
6A
70
17
08
70
79
00
6F
00
00
6C
73
07
70
76
77
6B
7C
71
0D
03
72
10
07
76
07
0D
70
0E
0A
1B
0A
76
09
11
16
09
72
11
05
05
70
03
03
73
77
78
06
70
7D
7A
7F
10
6A
10
05
71
03
0C
7E
7A
0F
0F
7A
74
10
14
79
09
76
0D
6B
6C
05
05
7C
04
7B
68
79
77
12
1A
6D
0A
00
02
70
13
69
76
03
0F
7D
0E
15
0D
79
75
0F
75
7A
6A
0A
6F
76
0A
0F
7C
6B
15
7F
01
74
0E
00
01
73
10
08
03
6C
02
10
10
09
7B
0A
08
7E
01
6E
79
01
73
0C
7B
6E
7D
6B
7F
7B
06
6E
74
01
75
7C
08
75
77
7A
77
79
00
7D
05
02
01
6F
7B
0E
03
64
6C
6E
7A
11
10
09
08
10
03
0A
0E
73
73
75
70
76
09
04
01
7A
7B
0B
07
7E
7F
0B
15
71
78
0B
79
06
03
74
04
7A
76
03
01
6D
77
0B
76
06
79
6C
71
75
10
70
00
69
75
77
02
10
0D
0F
0E
7C
76
78
0B
6F
0A
73
0D
78
6F
12
7A
6C
0C
76
6B
00
11
7C
03
7C
03
7E
07
7F
7D
7F
00
7B
6B
02
6B
11
0F
13
00
12
7C
12
04
08
0B
79
6F
08
04
00
77
13
01
12
6C
13
11
7B
00
08
6E
72
75
02
0C
7B
78
14
12
74
7D
7C
7E
02
0C
09
09
77
0A
74
7A
12
72
01
7F
08
77
7C
7E
6B
00
12
03
76
11
7E
0E
67
0A
72
08
71
72
13
06
6D
12
07
13
0A
10
0E
06
78
0E
0F
7A
04
09
01
7B
7C
70
70
00
0E
6F
03
07
0D
65
72
11
7A
76
08
7E
7A
73
13
69
7D
70
74
12
77
67
72
0B
75
0B
76
06
7A
00
08
0D
73
02
77
12
02
7B
6D
05
6F
0A
00
6F
11
11
0C
71
01
12
06
05
0B
72
78
73
03
7E
19
0E
0F
00
6D
78
71
79
02
78
16
76
6A
14
7C
12
04
0C
0B
71
0D
7A
72
7F
79
05
0F
7A
01
70
0A
6E
04
7D
09
6B
6F
0D
11
02
10
77
06
0B
0E
6C
7C
03
10
7C
03
10
72
17
6D
05
6A
08
0F
18
7E
70
7F
79
76
04
73
1C
7A
09
04
07
75
10
0A
7A
05
72
04
70
08
0A
01
77
04
03
74
7C
6E
7C
6E
13
74
13
6B
6F
15
0E
14
15
73
72
77
0F
6D
7E
7E
75
14
08
7C
79
08
03
10
6A
71
08
72
7F
6F
04
13
75
00
70
73
00
04
7A
7C
03
73
07
79
7A
6B
18
03
70
7F
6E
79
07
07
05
72
6F
02
14
70
75
70
7D
11
68
07
7B
6C
70
04
78
7B
07
0A
7B
13
00
14
6C
7A
11
7F
08
73
7C
62
78
72
6C
0E
03
78
6B
6C
7A
6B
79
7F
68
07
73
07
0F
77
75
77
7C
14
02
7E
7E
7E
01
7A
05
10
11
7C
08
00
0A
06
7E
75
7F
6E
7A
68
1E
75
75
0A
01
6E
04
6B
7C
07
14
08
73
69
7F
21
78
7B
0C
09
0E
78
11
04
6E
6A
12
0F
09
0C
00
79
7F
04
74
74
0D
69
05
14
1A
65
0B
71
09
03
71
11
76
63
6D
6C
7B
7C
1B
06
79
77
60
0A
71
6C
7C
13
7B
62
0F
78
10
6F
7E
03
01
12
09
76
77
0A
01
67
04
74
06
1B
72
72
03
0A
77
10
6D
01
0D
6D
5E
76
7A
77
76
0D
5D
0E
0E
01
7D
75
04
11
02
71
76
1F
7B
0B
05
71
7E
73
06
7F
7C
7E
12
10
13
76
5F
79
03
10
72
13
0E
69
72
6B
6B
71
07
12
7C
7D
01
00
70
73
7F
00
73
05
70
0D
69
07
00
14
13
13
00
09
79
6D
07
6B
6D
0C
02
76
05
76
75
76
6D
02
61
6A
76
78
7F
01
05
06
72
03
69
78
72
10
74
74
75
76
12
10
10
70
6E
76
70
7F
6A
7B
1A
7F
7B
05
0F
01
16
72
6A
76
01
71
01
09
78
76
0E
6E
74
11
78
0E
75
13
7C
77
72
7E
0E
03
11
75
05
15
0B
6C
74
7E
7B
6D
13
1E
01
09
76
74
71
09
0A
1D
7B
7B
74
1A
0C
6B
73
11
0C
7A
70
12
06
6D
70
71
05
0F
7A
03
0C
07
02
00
70
73
7D
6E
77
06
71
73
0A
08
70
12
0A
09
0B
03
03
13
14
7F
7F
04
0F
6B
0F
01
0C
77
7D
14
02
07
15
7E
09
04
00
72
70
79
6B
09
71
7B
73
6C
6F
7D
0E
7E
0E
05
79
0A
0C
74
72
06
6E
73
7B
72
14
08
00
7F
04
00
05
7D
10
02
0A
7D
05
0B
7A
0E
7B
11
01
15
73
07
15
0D
10
06
10
0E
72
08
06
0D
00
75
6B
05
15
7E
74
78
11
01
6D
68
05
74
13
15
0E
7D
12
6E
07
14
04
6F
0D
6A
7B
6C
03
71
7A
0A
7C
03
7B
6E
0C
14
14
6E
09
04
09
01
6F
00
09
73
0F
7E
03
05
7F
7E
03
03
78
14
0F
79
72
74
75
0D
04
0F
6F
0E
76
7C
00
0F
10
7E
78
79
6B
08
0C
0A
7A
6C
11
02
76
10
0A
0C
04
7B
7F
76
7B
78
04
12
7E
6A
6F
0E
79
00
73
76
11
13
6C
05
13
73
7A
6F
7A
0E
0B
78
16
06
00
12
0F
7A
72
02
7B
6B
0F
6E
11
77
10
6E
08
70
74
6E
6C
7D
17
0F
11
77
74
0A
0C
7B
01
77
74
7D
7F
7A
77
14
7B
6C
07
6A
75
7E
6C
76
6F
0C
7D
6A
75
77
76
70
75
09
0D
7D
02
73
6A
02
7D
01
10
72
77
71
0F
7F
09
7D
19
06
77
05
78
03
12
74
76
04
11
13
72
0B
68
7D
12
03
72
0B
09
73
7E
05
75
14
6F
0F
76
0E
79
7E
0C
11
6F
71
11
77
78
71
71
15
12
77
10
00
07
00
69
00
7D
71
74
0C
02
12
12
0D
74
79
0A
6C
7B
0C
0A
6E
03
76
0F
6B
0B
70
05
6A
09
07
7A
6C
0C
77
74
16
72
7B
6D
00
0E
7C
0B
74
0A
13
06
0E
01
02
01
04
7B
08
10
04
08
7F
77
01
6E
6F
79
79
12
6E
74
72
79
02
70
11
70
0A
6D
0A
74
07
7D
05
7A
0C
6E
78
70
7D
79
6C
03
17
02
7B
0F
6F
75
01
0A
70
77
6F
0F
7F
08
0F
77
01
07
75
00
7A
78
0B
0C
78
72
77
19
7F
73
0B
05
0B
07
6B
03
6D
75
76
7D
6B
7B
17
75
75
70
6D
7E
75
6D
0C
08
13
75
11
10
0F
0F
0F
14
00
12
05
6F
77
72
70
6B
76
12
6E
7D
00
13
76
0B
7C
0A
7A
77
7A
0A
12
7D
0D
01
6E
6A
72
6D
7E
7C
15
13
7C
09
71
07
72
78
74
14
7B
06
13
75
03
77
07
72
14
6C
69
72
78
04
7A
10
77
0A
6B
69
00
09
77
06
03
6B
04
6D
15
74
05
7C
08
76
7E
04
05
6F
78
79
12
06
07
74
12
6F
02
04
0C
07
12
05
72
0A
68
07
01
7C
13
16
6D
74
12
0E
01
70
74
00
7B
15
04
7A
11
05
12
78
70
7C
12
6F
0F
00
6A
6E
79
0C
7C
78
72
70
05
79
0A
05
78
12
04
0F
01
6B
09
09
76
73
75
77
12
7F
15
01
11
77
74
08
0E
0B
13
79
70
0E
76
75
73
73
0C
07
11
77
77
00
03
7E
0B
7C
71
6B
0E
06
7D
09
78
12
05
02
06
7B
0C
09
08
75
70
7C
6B
74
00
0C
77
6D
7D
72
7F
03
78
08
11
00
6C
00
7B
02
04
03
7B
7A
6D
15
11
7B
0D
04
7F
0F
0C
72
74
70
11
6D
74
6D
78
09
13
6D
6B
7A
09
15
76
79
7D
74
0B
68
78
76
78
7E
7D
10
09
15
05
7E
01
08
0B
04
79
7D
7B
02
6F
04
6E
07
0F
7E
7D
78
09
0B
77
13
7A
76
08
76
14
78
0E
0E
13
7D
17
07
6E
03
16
6F
7C
7E
7F
06
0D
0B
15
00
0D
05
76
06
6D
03
77
0B
0D
79
6E
0F
00
74
71
04
6B
05
03
00
0E
6A
0F
07
73
01
11
6E
12
7B
7C
03
04
0A
13
09
08
7E
6F
6D
0D
76
00
7E
74
16
02
04
09
0F
05
73
70
6C
72
0C
6C
0D
0B
10
75
09
79
0B
10
11
78
15
0D
02
12
06
0E
77
04
08
69
7C
07
6C
03
0E
76
76
75
00
6A
76
14
6B
0F
6E
03
06
75
7D
02
72
03
6B
00
03
79
0F
6D
69
78
70
0B
7F
78
71
73
10
02
12
09
0A
07
7F
05
0C
13
0D
11
00
01
0D
6B
79
7A
6F
0C
10
05
00
6F
06
6C
7E
02
6D
74
71
7B
7B
79
72
12
70
0D
6F
0C
6F
70
00
0F
71
09
08
77
6D
06
01
09
7B
09
75
04
7C
6E
77
04
07
7D
06
78
10
76
79
6D
6F
08
0F
02
09
0A
7E
7B
7E
7D
7B
7B
77
09
0C
7E
7A
03
71
0D
7C
02
73
7B
6E
10
6B
10
69
76
70
14
7C
69
76
7C
78
6E
71
0D
14
6C
7F
6A
05
7D
77
0F
6B
10
03
74
6F
72
12
70
75
78
7F
11
0E
02
0F
7A
6E
00
6F
00
71
0E
76
70
0F
6C
7F
79
7C
07
0E
15
0F
6E
74
72
7C
14
7A
0B
18
03
7E
76
04
01
17
79
01
78
72
0F
77
00
12
14
08
0C
10
77
6C
78
09
71
77
0A
03
72
78
03
74
78
04
7D
0F
06
7D
75
12
75
0C
15
71
03
14
14
78
76
7E
12
01
10
69
11
0F
05
76
6B
6F
76
0E
05
6C
7A
75
75
11
6B
7F
0E
14
0B
04
02
07
00
71
72
07
0D
70
78
11
79
78
10
7F
7F
6A
7D
7C
00
06
71
00
6D
74
03
04
0E
6D
02
77
16
13
75
7F
7D
6F
7A
7F
09
77
0D
03
08
7D
0B
70
10
03
70
74
78
12
6D
6F
11
0D
11
7B
03
12
74
72
78
7E
7C
13
0B
7E
6E
6D
0F
6A
79
00
0C
7E
12
01
7E
09
04
02
07
05
7A
06
0B
71
73
06
6D
00
69
14
7A
02
11
09
00
7D
70
6E
75
78
73
0A
6D
79
05
75
17
01
06
7C
0F
71
06
00
01
03
72
6A
6D
0C
6F
17
0D
7E
06
0D
01
08
0B
07
6E
78
10
7A
06
0E
03
75
73
74
05
06
0C
03
7E
0E
06
03
14
0E
0B
01
0C
79
11
74
70
7B
01
0E
0B
07
0F
6C
13
6E
7A
72
07
04
01
72
7B
7F
16
02
0D
03
06
05
6E
11
04
7F
72
75
09
6E
0C
7D
7B
73
01
6F
0F
78
6D
06
6A
00
12
79
78
78
7E
01
7F
0E
6B
6E
71
14
00
04
6B
14
00
69
15
0C
05
03
79
74
73
05
6A
0A
0C
09
70
0B
0A
00
02
76
75
76
74
74
02
6D
02
6E
05
10
76
6B
0A
0C
08
12
13
06
10
77
76
77
08
0F
76
79
7E
12
03
03
6F
7B
6A
7F
00
0F
79
73
00
7F
7D
08
7B
6D
7E
07
69
08
7E
6E
7A
6E
0A
06
74
05
02
7A
02
02
01
70
08
7B
7B
02
76
11
7C
0F
69
6E
77
01
09
05
6E
0D
76
07
0A
10
72
05
71
76
6E
0C
10
0D
71
13
06
12
05
06
0E
06
0A
14
02
0F
6B
7A
03
0E
00
79
01
78
14
74
77
74
77
0F
73
0E
6B
0F
02
00
78
10
08
7E
69
7B
02
76
7D
70
75
0B
0D
04
6F
01
77
09
12
70
70
76
72
06
02
74
70
7C
75
75
6F
03
74
03
09
74
6E
74
03
11
73
08
11
0F
10
7D
00
6D
0B
77
77
73
04
13
6B
76
0A
10
01
0C
76
15
08
73
72
0B
0F
14
75
79
7E
07
11
7A
13
71
04
71
01
6E
78
04
7E
16
7A
0B
76
07
79
01
75
77
06
6D
7D
76
0E
0C
0C
74
7D
00
75
12
7C
77
13
7A
04
0E
70
7C
75
73
0E
7A
73
05
72
0D
18
0A
75
75
73
0B
72
02
13
15
09
1C
0A
73
6F
6E
7B
09
7E
06
72
03
06
74
73
6B
77
11
19
15
0B
71
76
09
10
7B
11
6F
7F
70
7A
11
05
09
69
0C
08
76
0E
15
03
67
71
04
7C
0F
13
7E
0C
0A
08
02
08
14
0B
0A
0B
12
09
78
6D
7F
01
6A
6D
03
79
75
03
07
0E
72
72
10
0C
0F
7B
74
6C
16
7A
0A
0E
06
6A
13
7A
11
72
74
0F
1C
0B
0D
00
6E
15
01
7B
6F
00
72
09
7A
02
0C
78
16
7B
76
0D
79
06
01
77
03
6C
6B
79
0C
6A
7C
7E
05
7B
06
0D
0B
08
72
7F
6F
75
12
69
79
72
07
7A
08
65
03
77
03
11
6C
04
6F
7C
01
10
0C
6F
0A
14
05
75
05
6D
14
7D
12
0D
76
0B
08
17
6A
03
72
14
78
14
0B
0D
04
13
7D
17
79
7C
04
7B
03
6C
6D
04
0C
0E
0B
0E
02
16
72
6B
71
00
00
6C
14
6B
70
06
11
06
7C
09
7C
08
08
72
00
07
7A
0A
79
01
03
74
12
68
01
79
02
7A
6B
72
04
0A
0D
7F
0D
0A
12
09
04
07
7D
14
01
74
07
02
02
72
03
77
71
77
7D
05
0E
6D
03
6F
71
12
75
78
0E
69
77
79
03
70
03
13
05
70
06
06
0F
7A
0F
0F
76
6D
6E
04
7E
13
78
07
70
0F
07
07
18
02
6B
03
6A
04
05
04
01
7B
6E
09
6C
7E
09
0E
0C
7A
15
09
14
74
06
05
77
14
04
05
0B
06
14
78
72
06
75
78
77
09
6B
04
73
7A
74
7F
12
11
06
0A
79
7F
03
7F
08
77
78
08
11
7E
14
0D
15
6F
76
02
14
7A
0E
0D
01
0C
0C
00
6C
7A
19
6F
0D
01
7E
74
75
0C
6E
7A
04
01
0A
14
0A
7B
72
0C
76
0B
1C
71
05
7E
6E
7B
74
10
0E
72
01
7A
10
7A
79
0F
02
02
06
7B
64
77
7B
06
76
72
69
00
6B
03
77
6E
79
73
76
02
00
6D
6F
71
0D
70
7D
15
01
00
01
73
09
0E
7C
0D
74
75
0B
67
14
06
01
12
18
0A
71
70
00
6C
6F
02
04
7A
1C
71
7A
7E
70
70
74
7E
7F
0F
0D
6F
05
18
79
07
7C
7A
70
11
74
04
02
07
0B
08
71
70
69
06
7E
14
0E
13
7B
07
0C
74
07
7D
77
71
14
0F
6F
07
0B
6A
0D
0E
6F
7F
6B
02
0B
00
71
0A
76
71
0F
08
0D
0C
69
0A
79
71
13
02
03
78
73
78
01
69
7A
7B
79
12
12
69
7E
76
05
7F
08
69
71
13
0B
00
74
03
13
13
77
71
77
7B
0B
73
06
7A
03
10
0F
11
78
6D
6B
03
6A
70
04
7F
0F
0A
6C
08
75
7D
72
7A
71
70
69
01
7F
79
7F
01
74
7C
04
05
10
76
05
02
0A
09
12
11
6F
76
03
73
76
13
05
7A
7F
04
6E
0E
02
03
6E
03
0E
6E
78
0B
0F
0D
0C
7F
77
06
79
6F
03
6C
0E
1D
6C
00
77
7B
7A
75
68
0D
0D
08
7B
09
1A
04
7F
5F
03
01
15
7C
0C
6E
09
7D
15
78
13
7E
7D
03
70
6F
12
7B
01
7F
71
7C
01
03
73
75
05
6C
7B
00
7B
74
6A
14
06
78
07
78
7B
11
10
15
05
7A
77
1E
0B
7A
65
09
70
0C
6E
0D
10
70
6D
0A
63
04
11
73
11
06
08
7A
75
62
03
77
70
7A
01
02
00
0E
77
6C
6F
67
7F
70
0A
00
19
10
70
71
7B
7D
6C
09
69
11
7A
13
72
01
7E
11
70
14
7A
7F
70
76
7B
6A
6D
65
16
7B
70
21
6C
7C
19
73
05
75
08
01
71
7A
01
0E
12
73
70
12
0A
04
7F
6C
14
00
7E
7E
22
79
73
1C
05
75
6B
00
77
7F
7D
0D
03
0E
04
75
06
6D
00
0D
65
76
74
74
75
7B
7F
74
0B
10
64
0E
0E
75
72
6C
6E
5F
0E
6D
10
6C
71
76
69
7F
02
05
7B
72
0B
7D
12
6A
10
76
7F
09
71
6E
16
6B
6C
12
13
07
65
0F
69
0E
7F
77
6E
1D
0E
02
6C
73
7C
0A
22
04
12
14
7A
76
6F
6B
13
17
0D
10
20
6F
63
13
04
07
65
7F
5F
04
7F
7E
13
10
74
7D
0E
6C
6C
11
14
73
6C
7E
6B
6D
01
77
7D
7E
0A
10
7F
7B
1A
75
0C
75
0C
0F
66
71
06
63
6C
04
71
76
11
01
70
77
0C
12
15
70
6E
0C
7F
7D
08
7F
0F
02
74
7D
74
74
0E
6E
12
08
7E
13
6A
75
73
7A
03
74
03
10
7C
0E
00
01
07
0B
11
0A
76
0A
0C
70
06
76
03
08
01
6D
0F
6E
74
06
76
79
6E
04
08
6D
69
08
6D
00
0B
70
13
0D
0A
0F
6B
70
6A
10
03
00
77
05
15
06
72
7E
73
6A
0C
7E
10
08
05
07
7F
0F
69
69
78
71
0E
7A
07
7C
7A
17
02
0F
0C
6D
0D
0F
74
14
7B
07
74
04
70
03
07
73
11
05
01
73
6B
70
11
7C
14
0B
0C
79
77
78
0A
79
73
11
06
09
70
75
78
7F
0E
74
74
09
0C
11
15
10
04
02
07
74
72
6C
71
0D
05
0C
6A
0A
08
77
0A
6D
76
74
0B
01
17
05
78
09
79
6C
6B
7A
01
74
02
10
76
09
06
09
7F
79
10
75
74
04
6E
6F
70
7B
6C
69
7F
77
7C
7E
13
16
76
6F
03
6C
0E
6A
14
0D
02
73
15
16
0A
11
04
0D
0C
72
71
7E
7D
7B
7E
05
01
06
15
6B
6B
0B
11
03
05
12
05
70
72
04
7F
6C
78
07
04
0E
13
09
04
15
78
6D
11
0B
7E
05
05
6D
0B
16
78
12
0A
11
09
7D
13
79
10
04
7A
11
05
14
73
74
7A
17
0D
14
7E
08
15
13
78
7F
7C
6B
7B
11
6A
7E
71
15
6D
73
0A
7F
6B
05
79
08
19
74
08
6A
0B
10
78
03
11
78
6C
6D
15
7E
13
77
06
69
02
76
16
79
7B
0A
7E
6B
15
72
7B
0B
7C
72
6E
00
02
74
7D
08
6A
0B
78
05
7F
00
0C
79
12
12
75
6B
7D
02
71
6D
75
04
12
7D
07
73
15
6F
14
6B
6C
01
78
10
08
6D
74
72
70
7B
7A
75
7A
7B
7F
69
18
76
75
75
0C
19
01
07
6D
6B
12
79
73
6D
02
72
76
00
74
6B
07
13
05
00
7F
79
02
75
74
6D
14
72
09
74
71
72
13
0C
6C
0F
15
05
06
09
78
70
6A
0A
74
02
74
7E
7F
00
14
7D
77
79
02
7B
72
05
06
7E
7D
75
01
0B
08
10
6A
74
14
6C
6E
02
72
71
74
7D
7E
11
6A
6D
0A
11
16
0E
05
6C
13
02
10
7B
01
12
14
72
6E
0B
13
73
0F
6F
04
75
0A
07
0B
04
78
79
6B
12
6B
6C
00
0E
7D
73
01
76
11
7E
7A
73
76
76
02
05
6E
77
0E
04
0B
0A
07
6B
6A
0C
04
7B
0E
0C
77
7C
7F
6C
79
7A
0B
01
6D
75
14
6E
71
7E
01
7F
6C
7A
75
02
6C
12
14
00
6B
17
70
09
7C
70
08
6D
71
11
07
71
73
04
12
78
0C
0E
0A
0E
01
6C
7B
09
6C
7D
14
7C
75
0C
0E
17
15
69
7A
09
69
0F
02
7F
75
7E
71
70
04
03
11
03
07
7A
7E
7A
17
72
77
13
10
00
7A
12
79
76
08
07
05
7F
72
6D
0E
08
04
6B
0A
6C
0F
76
05
74
6F
71
03
0F
05
08
78
7D
13
6F
6E
0C
6B
7B
76
07
7F
78
7D
75
0F
6B
7A
13
7A
09
71
00
6E
0A
6A
77
72
7A
12
0E
08
14
79
12
6F
6D
07
03
6A
71
15
74
77
75
6A
79
70
7E
13
7D
01
78
76
6C
6B
6A
6E
13
71
15
76
04
6B
73
09
71
79
11
0B
6D
74
04
09
6D
71
77
01
79
0D
13
7C
11
14
0B
70
7F
0B
0E
7C
05
7D
00
01
10
6E
10
7A
0A
12
0D
7E
0C
0A
78
76
01
0A
73
06
7C
0D
79
08
77
09
0C
7F
6C
6E
70
7D
0F
75
73
0F
0A
03
09
16
74
6B
12
02
78
6A
03
7B
00
13
0E
7E
03
72
73
77
6E
76
7D
74
7F
11
02
08
74
03
6D
72
76
75
7B
7B
05
7A
6A
6E
7C
7A
7A
01
76
07
6D
09
7E
77
6E
0E
7F
72
12
05
7D
0A
07
0F
02
7E
00
01
05
7F
0F
77
6D
6E
13
02
0C
76
76
10
6D
7C
69
0C
13
6C
10
0E
03
78
05
6F
6E
0F
10
7F
7A
07
12
79
01
7F
04
77
0A
08
02
7F
78
0A
6A
11
0B
02
0B
75
0F
7A
73
0F
10
75
0A
6C
79
10
69
6B
12
09
77
70
06
05
03
01
09
78
7B
70
71
07
74
7C
01
7F
0E
6B
10
78
15
73
02
13
11
0A
6F
03
09
0C
11
6A
08
7E
0F
7A
7C
10
6A
0C
10
75
15
15
01
7F
73
10
11
02
0A
00
7C
70
72
79
04
0D
00
0F
69
6F
05
01
6D
73
6F
7C
71
7C
0F
09
0F
6E
0F
07
04
78
70
70
79
0B
06
0C
02
71
79
7F
05
0D
08
75
02
09
77
70
72
11
75
01
0B
6D
0C
6D
04
09
79
74
0C
7F
72
6E
14
0D
00
73
01
08
08
03
72
0E
70
0B
05
6A
08
6D
7A
78
11
11
0C
76
08
76
01
74
12
7D
7E
0B
18
7B
09
12
03
0A
6D
0F
70
0B
07
02
0F
03
79
6F
0B
00
08
08
10
0D
76
07
70
0C
77
6D
79
0F
6B
7E
0E
7D
16
02
03
6F
73
0C
0E
79
0D
6E
75
73
0A
0E
6E
71
13
11
0C
08
03
6D
0D
00
6E
74
04
7E
6E
76
73
01
17
7C
0C
7E
01
6B
13
0C
7D
08
7E
79
08
0A
74
0D
09
70
74
14
6F
0D
14
7B
0D
6B
07
69
6F
6B
0B
74
74
6E
74
09
03
04
0F
72
0C
78
7F
7E
7D
05
02
6B
11
06
6F
79
05
79
07
6B
12
79
14
6D
04
07
03
0A
6F
06
72
73
03
75
0F
6F
71
07
02
01
12
0F
7F
0B
79
76
7D
77
7F
06
11
73
70
7C
0C
6D
11
17
0D
79
06
71
74
6D
79
7F
00
11
13
7B
00
09
7D
72
6F
72
11
7A
0C
74
11
6A
7E
04
6C
6E
16
73
76
10
12
7E
74
07
6C
6C
78
02
07
6A
7E
6F
05
00
01
0C
72
10
75
6B
6D
7C
7A
12
74
7B
73
75
72
71
6C
7A
0B
0C
02
70
0A
74
6D
09
0C
74
6F
15
01
76
77
07
01
17
10
01
06
7D
05
0D
74
0E
12
6E
17
6A
75
74
07
6A
10
79
7D
0F
79
72
71
73
6F
11
0B
78
02
70
75
6F
7A
0B
14
0C
78
69
0C
7F
0D
12
14
76
6D
73
0E
0A
69
79
70
76
7D
05
05
0B
7C
7D
7A
12
0B
6A
77
7B
71
10
03
03
78
69
77
70
6B
09
0E
0A
77
08
06
04
03
12
7C
7C
78
7C
14
01
6F
72
6D
03
6D
13
0B
75
7F
07
73
0A
15
72
72
05
6F
0B
10
6A
7B
70
0F
06
6F
7F
6B
0B
08
0D
00
10
6F
0E
0C
09
6A
79
07
04
76
7C
76
7A
72
76
09
12
14
73
01
71
75
08
7B
6F
7A
73
73
06
7A
78
71
70
11
77
78
13
0D
7D
7B
0B
72
7D
0D
73
6A
70
0D
11
6F
78
09
77
0E
6F
16
75
7A
76
04
6C
10
7B
7E
04
78
7C
02
0B
76
70
7A
0F
77
01
10
72
74
74
0F
74
09
74
05
70
0A
7E
6C
08
0C
11
7F
73
0A
7F
13
12
7D
0F
75
07
00
6F
13
16
18
77
7C
6B
7B
0B
0D
73
6A
78
0E
0E
7F
78
03
10
7F
06
0E
03
72
6E
0D
79
7F
06
7A
01
76
01
0F
6E
7A
72
07
07
7E
79
6E
6C
0C
0E
09
10
13
0F
7E
01
02
77
7E
6C
7A
6C
7A
7E
0D
75
7E
72
7F
7E
0B
19
0E
11
76
78
77
09
07
07
06
15
7E
01
75
0A
0E
74
0D
6C
13
11
76
06
6D
7A
00
74
79
13
71
78
7E
09
12
00
73
70
6C
0D
6C
7A
10
02
13
0B
0C
7F
0E
6B
73
0E
03
79
06
05
7F
7C
07
74
78
10
7F
78
00
13
78
7E
6A
0B
0B
12
0E
76
09
02
14
05
02
19
03
12
0D
7D
72
06
76
7A
73
6B
14
17
07
7C
70
74
6C
1B
7C
7A
78
7A
02
78
6D
7C
07
14
77
7F
69
73
00
00
0C
0E
06
00
6D
79
73
70
6E
7A
05
73
76
06
6E
0D
76
70
6B
73
05
10
11
06
73
6E
0C
6A
13
05
11
0C
0B
6D
6B
77
72
76
7C
7C
07
79
7D
06
72
13
0C
18
73
0D
02
7F
7B
7B
02
0D
0E
0F
6E
7E
7B
0A
6D
01
1B
0B
6D
6E
6E
06
6B
73
10
7D
72
6D
03
7F
71
7E
08
11
0D
0E
05
14
7C
6B
71
06
04
69
7D
09
13
6E
0E
70
0E
1B
77
05
09
04
75
09
66
13
02
79
7B
75
04
15
00
04
7D
69
02
0E
14
6F
78
71
79
78
02
77
76
7D
00
0E
7A
09
04
7E
7D
09
02
71
08
77
77
05
79
0C
6A
78
6F
76
10
11
76
14
03
73
7E
79
75
6D
0C
0C
69
73
01
00
77
16
74
04
02
0B
6F
01
6B
03
01
6E
04
74
7A
6C
0D
7D
13
78
02
15
70
0B
73
7F
06
78
7F
75
0D
71
74
75
72
69
6E
75
05
75
7D
6E
18
7E
7A
7F
10
6A
7B
00
0B
7B
08
0F
7A
0F
09
04
7A
77
7F
6F
03
0C
78
79
7B
14
78
6D
70
72
09
6D
6A
75
0F
78
06
73
6B
15
02
05
6D
6B
78
00
7B
7A
77
72
6E
01
69
07
65
0E
0A
02
74
10
7F
0D
01
71
6B
6E
7A
72
06
01
7F
13
71
7C
06
70
7E
0E
75
7C
02
6E
6D
6E
13
76
11
12
77
71
0D
04
12
71
11
0A
0D
7D
0C
72
6D
71
79
0B
69
7E
74
6F
70
79
02
73
11
05
65
05
71
0D
74
73
71
7B
6C
76
76
17
6F
08
12
0C
6C
0F
6E
05
75
77
72
73
71
0C
04
00
03
09
10
7B
02
75
0B
0C
7F
15
6C
11
01
75
77
6A
73
6F
08
71
03
7F
76
75
00
6B
7F
01
11
78
12
74
08
7D
74
77
71
0A
76
77
10
0C
6B
7C
7A
75
7A
7F
11
7D
78
72
00
7B
10
01
6D
15
0D
0B
71
0D
11
08
71
7B
70
71
68
15
7B
09
6D
0C
79
00
76
11
7A
6C
04
00
02
14
0C
00
0F
6B
11
06
05
08
12
75
75
0A
6E
08
0A
70
6F
7D
10
70
10
0E
6F
6A
6A
76
0D
0E
01
6B
7F
00
6E
00
14
0C
73
00
79
04
10
0A
6A
7E
08
70
72
09
69
6E
09
7D
13
03
06
7A
6D
6D
74
79
02
73
6B
0B
0E
72
78
77
10
11
09
05
16
73
05
7A
0B
71
7E
74
0F
06
77
7C
75
0A
71
06
73
05
79
0D
10
00
0A
02
7D
0D
10
7B
75
73
04
7F
03
15
0A
7E
02
70
73
0C
07
14
6D
7E
7B
71
09
17
74
70
73
16
19
72
7B
11
0E
0E
03
7F
03
00
6A
6F
72
7B
70
09
72
04
7A
0B
0C
09
76
70
14
75
6B
0C
08
05
7E
08
6C
0C
76
6E
03
0F
72
10
0E
17
71
0F
7C
11
6B
01
05
6B
0F
06
09
00
10
73
01
09
0B
06
74
6C
6F
12
7C
04
0F
7D
79
0A
14
7D
70
11
01
78
13
0D
6C
71
7D
13
6D
79
6C
12
79
7D
73
12
6A
0A
70
08
0D
02
72
05
6E
02
08
00
74
7D
7B
08
05
04
0D
11
75
04
05
07
02
07
0E
77
5F
0E
13
7D
68
01
71
02
05
01
6C
0E
74
0C
07
7F
07
7B
76
11
6F
7A
0F
73
0A
12
0B
07
75
13
09
15
74
02
09
01
0E
0A
0F
10
6F
7B
6B
1B
0D
11
02
70
13
7A
7B
7E
7B
76
1F
11
73
63
0E
08
74
71
03
71
17
0C
09
13
05
07
1F
0F
13
79
7A
75
06
7E
7A
6D
04
08
16
0B
67
22
6C
0F
75
76
11
7F
70
74
7F
13
64
17
01
11
7F
68
06
14
10
77
11
04
67
00
75
0C
7E
73
10
73
73
7E
78
0F
76
13
6C
12
74
0B
6F
75
77
76
0B
1E
0E
6B
1D
07
7A
68
15
00
07
1D
0B
77
7F
11
74
01
02
04
0E
7C
06
0B
74
10
12
77
12
0E
6D
04
7B
78
11
1F
6B
0C
71
6B
7F
05
65
6F
0F
6A
03
1C
05
7C
70
7A
0C
06
6E
6C
7C
5F
77
14
0B
0D
0C
03
01
7A
77
7B
14
00
08
13
76
15
0F
7C
1A
7C
07
71
0F
75
79
7D
16
7F
7D
6A
7F
78
0C
11
08
7B
25
14
0B
12
6D
7A
02
6D
08
0B
73
6E
6F
70
75
0D
6F
71
76
6C
75
6E
11
76
73
0E
04
00
16
7F
6E
05
78
07
79
04
7E
11
76
07
11
0C
14
0B
7D
74
0F
71
14
77
00
7A
7A
0C
11
71
79
06
71
71
14
78
0A
03
10
71
7C
0F
75
72
0C
07
6C
05
13
13
72
16
72
10
71
07
06
7D
71
7A
0E
7B
14
0C
13
0B
06
78
73
09
10
08
07
06
70
0D
6A
7F
0C
0F
02
70
16
0F
06
0D
18
10
69
6F
6E
77
00
0A
05
6E
7D
14
78
7F
76
75
7D
0D
01
72
79
0C
6A
76
10
78
7C
06
79
00
0A
71
02
13
7A
08
06
75
6B
10
07
12
12
7A
6E
10
73
7A
01
03
71
7B
72
7E
6B
78
74
72
00
13
14
05
04
71
76
73
6E
0E
75
0F
79
00
0E
7C
6D
79
15
14
79
6D
72
03
7B
11
12
05
6C
12
05
05
6B
73
7A
72
10
77
7D
06
10
76
78
17
7F
7E
74
7C
06
0C
78
6E
7D
10
6B
7E
72
74
6E
0E
07
68
00
02
76
0C
0C
0B
00
7E
10
70
07
07
6D
04
00
11
71
70
6F
10
6E
0D
7F
73
17
12
00
07
6C
6F
0C
10
13
09
13
03
7B
79
0E
10
16
01
01
10
0E
04
08
6E
0B
77
07
01
19
15
73
07
7B
09
0F
7F
6A
16
79
79
77
78
10
70
73
7C
0E
0F
72
05
71
7E
7B
7B
73
6B
0F
7E
6B
74
6F
0E
7A
70
73
07
0A
07
7A
77
6E
17
6D
7E
7E
6C
6A
6D
0E
75
7F
13
77
04
0F
78
77
77
71
0D
10
0E
74
7A
0A
14
05
0B
13
09
10
0E
03
79
12
09
79
74
02
7B
07
03
0A
79
74
12
03
08
6B
0C
7A
72
08
09
03
6B
07
09
00
12
00
7C
74
79
7B
08
75
0B
09
7B
07
7D
73
77
0A
08
7E
6F
05
6E
73
7B
0D
6F
78
0A
74
77
02
00
0B
02
75
72
10
08
6E
0E
09
6F
12
7B
13
72
12
0C
7D
7F
75
6B
0B
7B
6B
7D
09
05
0D
76
02
06
6C
03
10
6C
06
0B
12
72
01
71
75
77
0F
07
04
0E
70
75
75
15
74
02
02
00
72
73
0E
10
14
74
09
0C
71
7E
7C
13
72
76
7A
7E
75
04
08
08
13
71
09
12
75
0D
0C
6C
7D
7C
14
0F
6B
13
0B
13
73
09
71
0A
71
79
08
78
7B
71
79
70
0B
6D
10
10
7F
75
07
7A
0E
70
08
7E
7A
00
0C
0F
06
0C
71
73
14
70
6F
69
05
14
03
03
6C
7E
6B
78
7E
6F
03
6E
77
79
79
7C
0B
7D
70
0D
02
72
12
0C
07
08
14
0D
0A
0D
72
6E
07
14
70
02
17
0C
6E
77
0E
10
6D
76
73
7D
73
0D
71
7B
78
78
6F
7D
7C
76
04
0D
11
04
0C
7B
04
05
10
75
6D
7A
02
7B
11
6C
13
70
0F
74
73
15
7E
0D
0A
6C
70
72
6D
07
7A
7B
76
7B
7D
75
7F
78
75
75
02
7F
6C
73
15
0E
76
01
0F
02
71
13
08
13
75
71
6A
09
73
03
10
0D
11
06
06
0E
0B
77
12
6D
6A
6C
00
04
75
73
6B
01
14
0D
7A
02
12
6E
15
00
07
0C
11
05
08
75
15
71
69
7B
77
03
72
79
10
06
09
75
03
14
0A
06
78
73
72
0E
6F
02
0C
07
14
76
0D
03
6E
79
06
6A
75
6B
13
06
15
08
0A
72
7E
79
0D
11
77
6E
0A
0E
0A
02
04
73
7B
6C
07
14
0F
0F
05
7E
7C
07
78
03
78
0C
03
70
09
15
69
6A
6E
70
7E
6E
0C
09
02
04
09
14
0C
76
11
07
02
00
7B
09
7B
05
11
77
7F
7B
7E
70
04
70
08
70
03
0A
15
79
0C
11
11
02
15
06
6A
7F
04
00
00
0E
6E
07
03
10
16
7B
6A
12
76
6F
07
0C
0A
0B
13
07
00
0A
78
0D
0B
75
0B
78
71
75
74
79
71
79
6B
06
73
7D
7A
10
75
07
04
78
73
0B
04
0A
0B
00
72
00
73
75
15
7D
6A
04
7C
77
06
07
71
72
04
74
7C
08
7E
02
7E
12
7B
02
0B
6E
78
72
7C
7D
78
79
12
7D
77
7F
15
0C
7B
11
05
13
6F
04
00
08
74
00
0D
11
05
74
75
74
79
7F
6C
13
08
0E
06
70
05
0F
6A
79
73
06
7A
08
77
05
71
07
7B
0A
76
74
6B
08
0B
08
00
14
15
71
0A
77
7D
08
0A
14
73
04
12
7C
03
05
03
10
78
70
6A
78
6E
0A
03
10
7F
0C
0A
0B
11
0D
06
13
0F
71
6D
08
6E
73
0B
7D
0E
73
7B
0C
77
76
07
7D
6E
71
09
05
09
11
11
15
6F
7E
15
7C
13
72
0D
0E
0A
03
11
6C
0E
7D
0A
71
15
00
6D
11
75
78
7E
77
6F
73
74
0C
71
13
0B
0E
0F
77
7B
6C
14
7B
0D
74
0C
7A
07
0C
0C
75
7C
00
15
7E
01
04
0C
72
02
06
01
00
79
04
0E
6F
69
7B
76
77
05
16
7E
0F
01
04
00
11
01
0C
7C
00
08
14
74
0B
0C
72
7D
10
7C
12
77
07
02
0A
05
04
04
71
08
01
79
75
6F
6D
74
6F
71
03
69
05
72
77
09
15
7B
6A
08
05
75
01
0D
6F
77
6F
6C
7D
6A
6C
6E
6B
02
71
79
0B
01
7E
75
78
12
08
77
75
6E
6F
6C
7C
7E
03
10
01
79
00
0E
0D
69
00
69
0F
78
05
12
0B
78
0D
72
7F
6D
77
05
03
0B
0B
08
0E
07
71
70
7B
6D
7D
05
0E
7B
6B
70
0A
15
19
0B
04
75
7C
76
7C
12
78
6A
08
0C
10
6F
0B
05
05
7C
7C
7D
6D
02
6D
10
76
13
6D
04
77
00
7B
68
0C
75
03
7C
78
03
79
0B
6D
0E
04
12
09
12
1B
69
0F
02
7C
7A
0B
78
14
07
0A
6F
1B
01
0C
74
72
12
09
77
7F
73
07
6F
6B
71
0A
01
02
12
7F
04
7B
72
7E
7A
70
75
74
07
0C
04
6B
02
12
71
6D
0B
6F
78
0C
07
08
0A
11
06
0C
75
13
11
71
08
05
7E
04
01
79
00
01
69
6D
0C
7A
0C
6F
78
13
00
77
13
7D
6C
11
0C
12
78
7A
0D
0A
0C
6D
75
75
10
0B
07
6E
7C
0E
7B
70
11
0C
72
07
72
03
0A
03
6B
02
11
73
7C
7A
74
69
79
79
11
10
7D
62
13
03
7C
7A
7B
0E
15
04
0F
73
05
76
6E
0F
02
10
09
72
07
7B
0D
7D
0F
7A
11
6E
7A
12
7C
12
09
03
71
0B
10
73
7F
7D
02
78
70
79
07
13
13
17
71
04
03
0D
73
08
6B
7B
0C
7D
04
78
71
08
74
7C
0F
00
00
69
13
0D
0A
6E
7F
75
6C
6C
05
0E
73
7E
08
7B
7E
0D
7C
02
00
06
10
02
73
7D
73
0C
08
00
7B
06
6F
09
0F
7F
01
0A
0F
09
0B
6B
6E
09
6C
04
6D
70
11
03
05
03
7D
0D
02
0F
6A
7F
6D
04
0C
01
0A
05
75
07
7D
06
02
6E
01
78
01
02
0F
7F
79
0A
7F
06
7D
73
0A
04
6B
74
0F
72
71
7D
1A
12
11
05
0D
7D
03
12
0C
11
6C
10
14
0A
09
74
00
05
0C
72
0C
70
6B
7A
73
64
7B
12
0C
02
77
7B
6B
02
0C
01
07
07
12
6A
78
70
6F
06
0A
12
0A
71
14
73
77
74
77
09
13
0E
76
02
07
01
7B
16
7E
7A
7E
0D
0B
6D
0A
0A
09
13
02
72
6D
6F
0B
75
69
6C
15
6C
11
73
6C
69
79
13
03
7F
03
0B
03
10
7B
70
0E
06
6A
72
15
73
02
0D
72
02
07
7D
7D
7D
08
04
03
04
12
13
70
6B
0D
0A
12
6C
08
11
09
16
6C
0B
71
0F
03
0A
07
03
70
06
6B
07
77
7E
70
05
76
74
77
05
6E
75
73
07
03
10
7C
15
09
79
19
14
72
02
76
0B
79
72
7A
0C
74
6D
6E
6F
02
15
7E
07
7B
0D
6E
0F
00
76
71
72
0E
7E
0D
67
06
0F
09
7B
7F
76
08
73
12
0D
0D
6C
7E
71
7F
75
7D
12
03
17
10
0C
7F
6E
7F
09
7F
7E
6C
01
09
7B
7D
02
09
0A
07
73
00
7E
12
0B
6C
11
71
09
12
0A
7A
7B
1A
6A
71
6D
6F
76
6A
7A
04
03
7F
77
0F
7C
10
1B
7F
7B
09
08
01
7E
77
0B
6E
07
11
08
6D
02
7D
74
71
71
7A
12
00
75
74
04
74
72
78
6A
79
77
6E
00
01
71
12
0D
76
0D
13
04
0B
09
04
72
06
0F
76
00
04
71
01
00
0B
01
10
0A
6E
6D
06
07
71
78
6C
72
00
0A
11
7A
00
7A
73
03
6C
73
11
6D
02
09
6F
7D
72
75
13
05
04
0A
68
75
6E
10
02
6A
7E
13
70
6C
07
6C
7E
7F
13
71
7D
7D
04
7B
75
74
0F
09
72
0C
72
74
05
13
00
70
10
6C
6A
74
10
05
06
0F
7C
6C
10
6F
14
6F
0E
71
08
6B
06
78
7B
7F
06
7A
7A
77
01
78
0F
02
7E
6B
00
03
7C
6F
6B
01
0B
70
7F
18
6C
7D
03
0E
12
71
6D
73
79
0A
72
77
67
79
00
74
7F
0A
76
05
7E
09
7A
04
71
0A
0F
7F
75
6F
7F
6B
79
05
7D
6C
0E
7A
0E
14
0A
05
6F
79
78
0E
7A
10
13
0C
79
7A
75
09
07
6A
0E
09
02
7A
0C
6E
13
15
7F
13
0A
74
0C
6F
71
02
14
14
05
0A
70
73
6D
00
7C
0E
10
6F
00
08
7E
09
06
0C
77
0E
0C
00
0D
07
7E
72
14
74
6F
7A
74
07
0B
7B
0D
00
71
07
78
6A
7F
04
76
06
6B
77
6F
07
6C
14
0D
10
7F
7B
07
7B
7D
07
03
0E
04
07
6B
10
78
72
0C
7C
6D
71
03
7B
78
08
7F
09
0D
10
79
14
10
17
69
09
11
7F
6D
74
79
77
7B
02
09
12
7D
72
78
78
74
0C
7B
11
11
73
78
11
6A
6B
77
79
0D
79
17
07
7B
06
77
7C
7E
02
05
71
6F
73
11
11
06
75
70
06
6E
7D
14
6E
7D
0A
14
0E
78
6C
03
7B
7A
0A
70
72
71
75
0B
08
76
7E
08
01
7B
72
72
6D
70
15
04
07
13
03
75
05
0A
6F
6E
0C
0E
70
07
7A
79
08
08
6A
0C
70
02
06
7D
14
0F
75
10
7C
69
13
17
70
7B
00
0B
75
7C
10
78
71
7A
02
10
72
08
72
07
06
0B
7D
7C
0D
0A
78
76
70
7F
66
77
08
0C
78
06
74
0A
78
10
18
04
6C
6A
18
76
72
6D
77
00
77
69
17
0E
78
69
12
11
73
6A
12
79
0B
0F
7C
0F
0C
0E
10
65
09
0C
0D
0F
18
00
09
09
02
02
0B
7F
70
6C
02
05
0A
6D
77
0B
03
14
7A
78
5D
04
03
05
0A
7A
0E
13
03
0D
00
0D
0D
70
79
14
72
7E
75
0C
78
6C
69
08
6C
01
79
73
6E
71
7F
10
14
7E
79
60
01
7C
0E
12
02
08
0F
07
77
7C
02
7C
0B
77
05
09
7B
1B
70
20
6B
73
0C
00
7D
11
7F
0B
6F
03
7B
0A
09
0D
12
79
01
75
76
76
02
7D
10
07
00
60
0F
0F
0A
02
19
7D
76
7D
7F
10
76
7D
09
06
12
0D
0A
72
0D
70
6A
05
01
74
05
03
0E
01
7B
00
04
6A
0E
14
0F
10
04
73
06
0E
09
01
09
02
6B
75
70
77
6D
72
67
79
6A
79
75
72
0C
7A
75
77
11
6A
79
78
15
0A
7A
72
01
7B
7A
71
0D
6C
70
05
13
78
0F
6B
00
6F
6C
70
17
74
0C
08
6F
6F
0A
12
08
7F
7E
10
6C
72
03
6C
06
12
0D
0E
09
7A
13
6C
7A
66
12
05
75
14
07
6B
19
78
69
7A
07
13
70
71
7F
7D
09
73
05
0C
77
7A
10
7C
06
08
0D
6C
00
12
06
70
0B
04
6F
0F
6C
13
69
7D
74
03
74
73
02
7B
04
69
0B
13
06
13
7D
73
7E
76
70
6F
08
03
6F
72
79
7A
1B
76
0A
10
05
00
12
6A
13
07
7D
7A
04
12
76
02
02
0B
7B
79
0F
07
10
6C
7B
7E
71
05
70
6C
0D
73
7C
7C
70
12
0F
79
0C
6A
11
69
0E
79
6E
07
0D
7E
0A
0E
13
6D
6E
74
0F
12
03
15
7D
78
09
0E
12
6C
75
74
71
0F
73
06
0C
70
6C
6C
01
78
73
13
0B
06
79
15
10
12
08
0D
0C
0C
13
0D
02
03
7A
07
7B
14
75
08
09
71
7C
13
06
04
0A
72
05
6C
09
6A
73
00
6F
6C
10
77
7E
78
05
7C
04
6D
74
00
14
05
06
0C
03
7E
6C
6F
0C
76
6D
13
01
70
08
02
0B
04
72
7F
0F
79
6D
76
6A
11
03
06
7E
0A
71
77
0E
6D
06
7B
02
0C
78
6C
12
72
7C
77
7B
73
0E
0E
7B
08
18
7B
01
11
07
06
77
07
11
03
75
73
7D
6B
07
12
03
0E
0B
09
00
74
02
72
08
0B
02
0B
76
75
12
6E
0F
1A
7A
7E
74
79
0A
18
7B
02
01
7D
09
03
76
00
6E
0C
0D
0F
7D
12
75
01
6F
11
0C
74
00
0D
05
6A
69
11
06
02
07
12
0C
08
0E
7B
0E
06
7C
11
03
08
11
13
13
78
00
07
72
11
7F
6E
04
6B
0E
6E
13
14
08
06
0C
06
02
6F
09
12
08
79
0C
71
72
13
6F
73
0F
16
02
7F
6C
76
06
11
7A
0C
0D
74
04
0E
7A
7A
6C
10
01
78
12
0E
6B
19
6D
72
0D
0F
78
07
00
01
12
7D
75
73
72
10
06
10
00
79
0B
0F
04
6A
76
6F
04
02
75
04
77
08
11
7D
6C
77
08
7A
75
02
74
77
15
0B
08
0F
12
0C
12
73
73
03
79
11
04
6D
04
71
14
12
6F
04
7B
70
6D
06
03
70
70
69
07
04
04
0D
7E
78
75
6C
07
14
6A
09
79
75
12
73
73
00
74
6B
7F
71
76
15
13
0B
7D
76
72
70
01
78
0B
02
14
77
03
75
70
03
10
7C
79
6A
73
00
16
6F
6B
69
77
13
0E
06
0B
7C
0C
72
78
79
09
11
70
06
71
73
0F
14
00
02
7E
72
13
79
6F
14
04
11
0C
7A
01
78
14
78
07
02
05
78
70
79
71
0F
7E
6D
70
76
15
6B
6C
10
6E
7A
11
08
7F
75
6E
05
76
6C
74
74
70
77
04
09
06
16
03
79
0E
05
0D
7D
04
6D
7F
72
0D
08
7D
7F
13
03
6B
6A
6E
73
14
13
0D
0B
7A
79
0C
6F
0E
76
6E
00
6B
7A
06
0F
00
12
12
77
08
72
06
14
75
7B
73
09
0D
04
09
77
14
09
12
04
72
12
75
10
07
75
77
7F
75
12
03
0D
7F
01
7E
6E
73
7B
07
02
72
76
11
00
18
01
7F
75
77
6C
6D
74
74
0D
77
00
03
74
6C
79
01
6D
04
72
73
07
12
0A
11
6B
6F
0A
74
6F
6C
79
00
04
70
04
12
6D
69
05
05
79
0B
73
79
08
14
6C
00
02
71
7E
0E
73
6F
7A
08
77
16
71
6F
02
06
6C
00
7F
7E
72
6D
09
69
08
79
71
04
14
00
13
0D
0D
70
7A
77
7C
72
7B
7A
12
12
76
6C
79
7B
01
6B
0C
7F
72
01
01
03
12
7A
13
6C
6F
07
10
78
12
78
7C
6F
02
14
6F
00
02
7F
13
7B
73
7F
79
08
07
0A
13
0D
13
0C
6E
74
0A
06
7A
0E
6B
03
10
71
07
11
6E
0E
04
10
09
04
07
0D
05
13
69
0B
7A
71
7B
10
03
13
01
7C
13
0B
09
04
78
14
6B
14
7E
6A
08
76
72
78
07
11
0D
77
6E
6D
12
7A
77
6C
00
6E
0B
76
05
13
02
70
00
6E
78
06
6E
7F
71
79
0D
00
70
0D
6E
7F
75
72
77
02
7D
6F
7B
6D
7A
04
6A
75
0D
6C
10
0A
6F
0A
69
70
0C
03
7A
14
6B
7B
7F
14
6F
73
08
7D
07
0E
0D
78
0B
14
7B
0F
0F
6D
07
12
01
07
74
0B
0B
6C
12
6E
14
03
7A
0A
6D
08
7C
76
77
12
75
01
10
0B
7B
6E
02
70
13
10
14
77
79
0E
7E
74
73
0C
67
07
70
7D
7C
7A
7B
10
6E
75
03
11
08
7E
75
0E
02
14
7A
14
79
74
74
6A
78
7E
79
7C
11
7F
0D
0C
73
09
01
03
09
0B
6B
0D
0B
14
74
78
6C
00
76
01
75
07
7B
76
1A
11
79
79
04
7A
0A
76
7E
73
12
00
02
0B
6C
05
70
79
16
7F
6D
0D
05
15
0A
7C
6F
6F
67
7F
0C
14
7D
04
0D
6C
7B
7E
75
02
00
02
10
7B
70
0F
75
74
6D
09
7E
13
0E
08
6D
06
6F
0E
6F
7A
6F
7B
00
02
07
7A
06
14
0E
7B
77
79
06
6F
73
02
71
0D
08
7B
12
73
07
76
73
15
7A
6F
6B
7D
6B
10
73
79
0A
0A
06
77
7A
69
7A
18
7B
74
0E
1A
73
00
74
0C
10
08
10
02
6D
10
10
02
0C
78
7E
11
06
76
78
73
02
0B
6D
77
0D
6B
0A
7A
7E
6F
13
05
12
7C
10
05
10
0A
6F
73
72
6E
06
03
0C
12
0E
01
06
77
06
79
06
08
01
00
7C
09
7F
05
02
0A
0E
6C
18
02
16
06
69
6C
17
76
7B
10
72
6F
13
7A
7F
08
69
06
11
7A
7F
0F
0D
7A
0F
0F
7A
7B
7D
77
0D
0F
0E
04
7A
0D
73
7A
7B
74
6F
74
0B
00
00
03
75
0D
76
70
08
0E
7D
10
00
6E
7A
06
7D
0D
7C
7A
0C
15
01
0A
7F
77
7F
09
77
0E
06
0E
7E
05
73
0E
0B
6B
0E
0B
00
10
70
0F
7F
68
7D
7C
15
6A
7C
7E
09
78
7D
7D
0B
7A
6D
72
72
70
74
11
77
0A
04
12
13
79
02
7F
01
72
77
05
13
79
12
78
11
11
0D
00
77
7B
7B
7D
04
12
66
6C
70
0C
08
08
00
0E
73
7C
0E
19
73
73
09
03
02
17
14
0C
07
02
0F
7F
06
15
00
14
07
01
72
74
0C
74
00
7A
01
19
0E
7C
6B
7F
00
70
0D
67
08
00
08
07
7E
7B
0A
6E
06
08
7D
6A
06
0E
08
10
71
0E
78
6E
0D
10
6E
79
03
0F
0B
72
69
16
02
7D
75
09
7D
7F
0A
04
73
0F
07
13
05
7E
0C
77
6D
01
6D
7A
77
14
09
7F
6F
0B
6F
70
6F
1D
12
12
0F
7C
03
02
7B
01
0C
0B
09
71
74
78
7A
6B
0B
6E
01
03
7A
7A
05
14
7B
75
71
14
09
10
79
14
69
79
6F
6C
71
7A
6A
13
02
09
01
7F
0A
1E
11
09
05
0A
10
7E
6B
74
73
12
0D
06
04
16
69
6D
65
75
0F
02
09
72
12
02
76
7D
18
76
79
08
7D
7A
07
04
75
07
13
09
6F
76
04
6E
0E
12
06
13
78
69
0E
6A
7F
76
6B
6D
1F
6B
11
0D
04
75
7B
14
7C
79
7B
14
10
72
71
70
71
0C
77
0B
7D
7B
07
06
03
1F
6C
76
74
1D
10
0B
7E
75
08
0D
04
08
0A
16
76
07
76
76
0C
18
71
6C
6E
11
6A
07
7C
7A
0A
04
71
6F
67
76
04
73
1A
77
0D
7A
73
7E
0C
0A
06
0A
05
02
7E
7E
76
74
11
7C
12
69
76
15
12
72
72
75
73
0A
6D
11
71
01
6F
6F
00
14
6D
72
7C
02
70
71
07
7F
01
0D
7E
0F
03
07
77
75
6D
00
01
73
0C
7B
6D
77
01
75
06
18
63
6F
0B
05
7D
16
07
0F
7D
08
6B
6C
74
0C
04
7B
13
14
0D
6B
09
12
0F
09
69
77
07
0A
08
6C
0E
08
70
6D
79
02
74
0F
1A
01
11
13
6E
71
7D
0B
01
7A
03
15
01
02
7E
6D
79
7B
0D
6E
0E
0C
7A
0C
01
1A
7C
78
11
6F
69
05
0C
7C
09
0B
7D
76
6C
76
14
7A
6C
6B
09
12
6B
75
02
7E
17
02
13
0A
67
61
11
0D
7A
0C
16
77
7F
7D
0D
73
0B
73
07
79
7E
08
73
06
6C
7B
73
0C
73
7A
0B
10
69
7E
05
7B
10
7A
77
78
0F
1D
18
15
77
74
6F
0C
04
08
02
73
75
09
76
79
01
6F
7F
79
7F
0B
6A
13
7F
75
0B
78
70
08
76
7D
12
74
11
0B
10
03
02
14
14
71
10
06
70
07
09
09
6F
10
09
77
77
75
02
74
08
06
04
71
77
15
75
7B
74
1B
7C
7C
70
08
08
7E
78
77
73
01
07
7C
73
72
71
7F
7D
6B
10
13
05
7B
6D
77
0B
78
75
7B
09
7C
7D
69
74
71
09
71
06
75
05
68
7D
75
0B
74
04
06
0E
78
72
76
02
7A
6A
13
03
0B
08
00
02
6E
06
06
7A
6D
09
05
6E
7E
75
77
7F
7A
09
02
08
09
71
0D
7C
77
7E
74
7A
6E
7A
7C
73
75
6D
00
7C
7B
05
0C
02
78
0B
6B
0D
0A
70
11
04
6A
7D
09
03
0D
02
0C
10
07
0E
7B
09
6F
0F
09
6E
0D
6A
7F
03
0C
05
10
7E
00
76
6A
68
0E
6C
7D
7F
12
6B
77
0B
06
6E
0F
0F
6A
10
03
7C
7D
18
7B
11
10
0C
7F
6B
04
09
15
71
0B
13
7C
74
77
01
13
10
0E
04
76
7C
72
7C
72
7C
7E
02
76
7E
76
70
73
6A
7A
70
10
6E
6E
72
07
03
6C
0F
7B
0B
7A
01
12
70
14
6C
03
00
09
0F
13
09
74
00
71
7E
16
74
72
05
06
73
03
09
14
10
7A
7F
14
70
6B
73
71
1A
69
69
6C
0B
07
7B
09
0C
03
0F
73
17
7E
72
7A
12
73
76
71
7B
7F
7F
0F
6A
08
7B
74
13
73
73
77
77
08
79
76
69
7D
06
74
73
12
75
7B
0D
09
79
14
6D
07
02
06
71
7D
71
01
09
74
7F
04
05
08
04
04
74
73
78
01
69
0C
79
15
0D
01
7B
78
6A
00
7F
7D
0B
6C
03
07
68
0D
09
14
12
76
05
04
7D
12
07
03
0C
0A
0B
78
0B
11
6D
77
7C
6E
78
6C
10
7C
00
6F
0A
0B
03
7D
13
01
08
0C
75
0C
1A
06
03
07
6B
7A
07
7B
13
11
0B
7A
7D
71
13
7A
77
68
0B
0C
75
07
7B
06
11
75
09
0F
7C
14
11
05
18
7B
78
08
08
06
71
7A
16
72
04
7B
03
79
6F
04
0E
0D
02
0E
07
15
7B
13
7F
6B
14
05
12
10
74
7E
14
6E
04
13
7A
08
7D
0C
02
05
6C
0E
78
02
7D
13
17
7D
6C
0E
78
70
73
03
6F
73
69
09
72
6C
02
02
05
68
0D
15
00
7C
07
6E
75
07
71
11
7C
05
0C
14
1F
0A
70
0A
02
12
0B
79
00
16
64
08
7E
71
07
7C
0A
71
14
09
77
09
77
0E
0A
76
71
05
74
0B
06
08
08
6D
7C
06
6F
75
78
6A
74
6A
6E
03
78
0D
71
21
0A
78
7A
79
64
04
06
11
75
19
0D
01
0A
0F
7C
7A
73
69
03
17
76
78
1F
06
6D
01
03
7D
17
0E
0E
02
0D
10
7C
70
08
6C
71
0E
78
14
07
70
15
6A
08
6C
12
75
18
6B
02
77
7C
6B
0D
6E
10
68
74
0A
71
7C
77
5F
06
6D
6D
7A
07
79
09
0F
7A
10
7D
0D
10
13
0B
75
0A
0C
04
10
79
10
12
20
6F
7F
73
73
0A
66
6A
7B
06
10
7D
73
7E
7B
06
08
04
7F
17
00
07
7C
12
14
6E
0A
78
7A
05
07
02
1D
79
0F
0B
71
12
04
7D
77
76
11
78
04
07
09
70
7D
09
61
6C
05
0B
01
01
66
75
11
6A
6A
11
70
7A
7C
11
73
11
0C
7B
13
0D
17
02
7B
01
6B
10
7A
7F
23
10
7F
05
69
0E
7F
09
03
0A
7D
03
70
01
6E
0F
05
00
76
09
5C
6C
06
00
06
0D
0F
7E
75
6D
72
00
68
07
0C
6E
7D
0D
13
01
18
6A
00
11
04
08
04
79
75
7E
10
13
6B
7F
02
78
17
1A
0F
7B
0E
09
12
02
0B
0A
72
76
6A
02
6F
05
0D
13
7E
0D
02
04
1F
6F
5D
7E
09
07
03
08
6C
1C
09
7E
74
76
7F
5F
6C
14
13
7D
7D
79
62
73
7D
73
6C
78
04
0B
76
6D
0B
0C
5F
75
20
0B
7C
00
17
6F
7C
5E
6C
6A
6D
15
0F
6A
11
73
7E
04
71
6F
76
7A
04
20
7A
0B
72
7E
6F
0D
10
05
70
00
06
05
71
01
18
06
79
7B
07
7A
19
6D
5E
02
0C
18
01
08
00
1F
6D
09
06
7A
7D
73
6B
12
7A
6D
02
74
76
0E
0F
7C
10
72
71
72
02
7E
11
7E
05
0E
7C
78
70
6C
06
0B
0D
6D
12
08
6C
19
00
77
70
0D
09
0E
7F
0E
11
0D
03
0D
74
7F
77
07
05
6B
12
0C
13
75
15
7D
03
78
0A
05
71
7F
06
6B
10
6F
15
05
7E
06
69
10
01
07
7B
12
10
0E
75
0F
14
04
6E
7B
0E
6C
7D
74
74
7F
0D
72
6C
10
10
7E
13
74
02
70
69
7C
7B
78
71
10
6D
7A
73
05
76
07
76
11
6E
0C
7D
08
6C
08
02
7D
03
1A
00
79
6B
7E
03
0F
09
10
12
0F
7B
7E
76
0A
6D
6D
6F
09
7D
7E
7A
7E
0C
74
10
69
04
6A
0C
7F
0C
04
16
71
7D
04
0A
6A
7F
7F
6E
08
16
07
7F
15
78
75
6F
0D
00
0E
06
79
04
75
7B
04
6C
7D
6C
09
6E
10
0D
0E
7C
70
00
74
07
7C
00
6B
03
74
6D
7B
06
04
04
6E
04
12
7E
78
07
77
04
08
7B
79
0F
03
7F
0E
6B
01
14
09
78
70
7F
71
6F
7C
6B
05
7D
0C
08
6D
70
74
13
03
0E
71
7B
12
72
7E
7F
10
76
16
7A
78
0A
0A
6F
04
68
0A
02
0A
79
72
0C
0D
00
76
10
15
75
7A
09
14
0F
10
08
01
0D
0B
14
05
75
7C
78
7D
7D
78
77
6C
69
70
75
12
18
6E
6E
0A
77
11
12
78
6F
78
0D
07
16
7F
79
02
0B
6F
0C
79
6F
08
6E
7E
76
09
7A
7A
11
0E
09
13
0C
12
03
0E
77
18
7A
6F
12
0D
0C
7D
7C
70
05
07
6F
74
6E
11
6D
08
07
00
77
07
02
7F
73
72
05
6B
6F
04
70
03
10
0C
7E
07
6C
70
07
0E
01
6A
6D
06
7C
72
13
6B
74
7D
70
77
77
6E
08
7B
7D
6B
00
08
0A
0F
6C
74
15
02
10
04
01
69
0A
0E
74
73
0A
6B
0E
0C
7D
02
6F
14
09
6D
6B
00
7C
7D
7D
06
6D
13
71
08
7C
7D
70
7D
78
01
7C
7A
70
0D
72
76
7C
7F
02
08
6F
06
7A
10
07
10
07
6D
04
7E
0A
74
74
79
70
01
12
06
12
06
7F
03
0E
6D
7C
7F
0C
13
12
6A
7F
70
0E
77
6E
11
71
78
17
7A
00
6C
10
04
13
08
04
0C
7E
09
71
69
75
78
77
12
7A
79
0D
08
06
08
17
79
09
7A
74
71
7D
00
72
0B
0B
7A
7B
6D
6A
6D
13
03
7A
0E
12
04
6C
17
05
71
11
7D
6C
6D
0F
70
00
09
06
13
71
09
0C
07
6B
0C
6E
76
05
72
78
00
08
15
72
0F
03
6F
12
12
11
07
72
14
77
0D
02
0C
6A
74
7B
0B
09
7F
6B
18
79
0A
06
03
7E
77
7D
00
0A
73
13
75
73
13
73
71
6F
77
74
75
6F
7F
02
7E
75
7E
14
04
6B
70
6D
78
10
08
11
74
03
78
77
73
79
01
78
07
76
08
11
04
71
14
73
0F
00
75
77
11
79
15
06
76
0D
72
6E
78
0B
7D
7B
6F
04
10
7F
6D
78
77
17
12
73
6C
6B
15
72
08
01
7D
76
79
12
03
0D
6C
6C
0B
05
06
08
79
06
73
6E
03
13
05
71
77
10
7B
10
04
7F
72
72
08
6F
7D
05
70
7C
74
08
10
75
0D
71
0D
0A
7C
00
05
73
08
71
00
7D
08
7F
04
77
6E
12
12
75
0B
01
76
6F
70
12
0E
0A
14
7B
70
74
7F
0B
73
78
74
74
16
7A
0B
01
6E
72
0D
00
73
06
6C
6C
0D
0F
01
08
72
7D
72
11
0F
71
6D
6F
7A
77
07
6D
7A
0E
01
77
12
6A
78
0D
13
11
07
72
6D
0E
14
71
07
08
10
0D
02
6E
03
0D
7A
6F
7D
01
07
6E
0C
78
04
69
05
7E
76
71
73
7E
7A
09
7C
72
6C
7A
19
08
7C
06
01
0C
74
74
72
7A
01
7C
76
0E
15
73
05
00
00
14
6D
7F
00
7D
7C
0B
73
0C
7C
77
06
14
6C
13
70
0B
11
0C
71
72
04
0A
70
7B
6B
6A
0E
7A
10
0F
0C
08
6B
12
06
78
0F
78
11
70
73
06
77
7B
16
02
6F
08
10
10
6D
09
6C
0F
72
79
04
6D
76
10
08
6F
73
6A
7C
0F
77
06
03
14
02
0E
7C
67
7B
75
79
77
72
76
03
76
05
73
6C
74
06
70
7D
70
6F
03
73
72
7E
7B
0E
0F
0C
0D
06
75
7A
6B
6F
7C
12
6F
6D
00
07
7F
06
70
7A
13
6E
7B
0A
78
75
73
69
05
78
79
7A
12
7F
05
78
69
0C
79
76
02
00
06
69
78
02
1B
6E
79
1C
77
66
6E
6B
01
7E
7F
09
03
10
70
08
7C
13
0B
0D
7F
18
78
0A
75
14
61
7D
7C
73
0E
79
02
04
06
7E
11
7E
06
12
7E
78
14
0F
73
0F
07
06
6E
0B
7B
20
6B
13
77
77
0F
09
7D
6D
01
76
6E
03
07
6A
0B
77
7F
6D
0F
7F
1C
6F
6B
6C
72
01
0A
6E
7C
13
0E
08
0E
05
09
7F
6B
7C
74
04
75
11
01
04
0C
0E
08
70
74
16
72
6D
73
08
7C
04
78
11
74
7F
75
70
10
78
02
06
6E
01
0B
0E
6A
00
0F
7F
14
72
6F
06
76
7C
68
03
0E
76
0A
0B
6D
0C
1C
72
06
71
00
71
10
62
09
11
04
05
18
06
0C
75
76
0D
6E
78
0B
10
71
7C
14
66
10
10
0B
16
7E
7E
0E
04
74
7C
74
09
0C
05
07
10
6A
73
03
77
0E
6C
6B
6B
0D
77
08
7C
03
08
0D
7A
00
6E
70
7D
11
15
6D
71
1C
10
02
0D
78
10
64
08
6A
77
71
7B
76
11
77
6F
7E
6F
7E
6C
7F
7B
08
07
7B
6F
75
0B
0F
68
03
7A
73
68
00
14
79
0C
10
0D
6F
0D
08
05
77
6E
00
6D
7D
14
00
12
6F
02
07
7A
74
74
0D
1B
09
11
01
11
18
0A
6B
05
0C
6C
09
07
08
7E
7A
72
6F
7A
03
09
18
77
75
69
0D
1A
73
7E
06
71
13
02
76
07
00
6E
13
6E
0D
6E
07
04
12
09
0E
71
18
10
73
7A
09
6F
14
77
0A
73
06
17
03
6D
76
6D
00
70
13
02
78
6E
08
0D
76
0D
18
00
12
14
05
0F
00
15
7A
09
06
05
12
09
01
11
08
72
08
19
70
6D
06
07
08
15
77
0F
74
07
06
7F
7A
14
0C
11
7C
74
74
6E
73
75
79
6C
00
68
0F
0C
16
01
7E
15
7E
6B
75
09
78
01
78
01
0D
71
7C
70
0E
74
01
0C
77
09
6D
14
78
71
6C
7F
0C
74
0A
6F
18
6E
15
00
7D
7E
02
0D
01
75
6A
01
7D
11
7E
6D
08
12
76
14
7D
05
6F
79
70
72
69
74
16
7C
09
72
78
77
0B
77
7C
6D
14
7A
09
75
75
11
73
74
7D
75
03
6C
03
09
76
09
15
79
0B
07
03
0F
12
7B
07
12
14
0A
0C
05
07
7F
01
79
79
0C
0D
03
71
79
75
0B
6F
7D
7C
07
78
6F
75
06
11
6D
07
03
7E
73
6B
0D
09
79
14
19
10
02
03
7B
72
6B
0A
7F
0A
0B
6B
7E
7D
76
6A
6E
72
7A
71
05
05
71
7A
0B
07
0B
02
14
7E
10
07
0C
10
13
7A
05
14
06
73
7D
06
68
76
03
10
0F
0B
74
05
7B
6B
18
02
0B
01
11
79
76
7F
09
0F
04
79
08
72
06
01
7D
71
7D
79
10
7A
0F
72
76
72
6C
08
11
78
09
76
72
0C
76
04
73
17
6B
09
03
1A
0A
06
10
05
05
72
02
0C
0C
02
79
02
77
0E
79
77
0A
69
0F
76
0F
18
07
0E
6B
78
7F
09
74
0B
11
78
19
79
06
07
10
07
04
00
0D
0C
0D
7C
7E
7D
6E
69
71
10
0F
6F
01
00
0A
08
73
04
6F
72
7C
00
11
6E
77
13
7A
01
70
14
6C
7F
03
7F
05
1C
10
6D
6C
13
0A
6F
75
0B
04
7D
71
70
12
0A
13
7E
7D
02
7B
1C
0A
74
72
05
0E
18
65
13
7E
6C
6F
7C
72
76
03
02
09
7C
6C
12
07
01
07
11
67
76
74
77
74
6D
6E
19
0C
00
78
7B
7A
09
12
78
7B
01
72
1A
12
12
07
09
0E
1C
7F
10
04
6F
04
05
72
70
11
0C
0D
73
7B
6D
20
71
07
70
0F
77
70
7E
00
67
73
72
00
0F
13
1F
02
75
07
6B
7D
1B
09
10
05
07
01
02
7F
04
6D
0B
78
6D
7B
14
6B
10
02
0C
68
09
7B
05
6E
08
05
18
6E
04
77
0F
7B
6C
7A
0D
04
14
7D
7D
0F
7C
7A
7B
08
0B
13
75
00
12
14
0D
76
01
08
0B
01
0E
7E
6A
18
6F
10
7A
01
00
78
74
7B
78
72
70
7C
11
0D
03
7E
7F
04
08
08
1D
67
74
14
0C
7A
74
6A
6A
12
7B
74
70
77
76
13
7D
7C
08
64
74
73
77
05
70
74
0D
79
00
0E
12
08
08
16
06
08
7A
6F
19
7B
7C
0A
6A
7F
0E
02
11
75
12
6B
11
7B
6F
6E
03
6F
0B
10
07
14
00
01
12
11
03
0C
16
6C
06
0C
0E
6C
07
07
13
00
0E
14
70
01
7D
67
6A
6E
09
7C
03
06
05
6D
74
0F
7A
73
6E
71
6B
17
05
03
7C
13
00
73
01
0A
12
7F
7D
6D
00
0E
6B
7A
0F
00
05
7D
0C
6A
6B
7E
05
6E
0F
09
6D
11
10
79
02
0D
7F
09
74
09
13
73
7B
7B
0E
0B
6D
01
79
7E
06
71
70
6A
01
06
0C
7A
76
04
76
7A
0F
7A
15
6C
07
14
09
05
0F
7B
74
04
14
08
75
07
14
0B
79
00
6A
08
79
03
0D
6C
78
6E
7D
6B
0C
0B
07
04
77
76
04
12
07
07
6E
77
0E
02
06
6A
08
7C
0F
10
6C
6F
12
76
10
71
0E
02
01
13
79
7C
10
79
0A
6F
71
6E
71
13
04
7D
7F
08
6B
69
09
76
7F
0C
0A
12
13
74
79
6E
6D
7E
77
00
0B
03
0D
04
09
75
0B
0A
06
6F
02
77
06
6A
08
7B
7B
75
0E
79
09
10
00
02
11
17
70
03
00
08
77
77
0E
6E
6A
03
6B
6D
07
07
01
78
11
02
01
6C
00
7C
03
69
04
0D
72
0A
01
06
04
07
6C
7A
76
6A
6C
6F
77
71
15
05
6C
0B
79
79
0F
09
08
09
10
7D
6F
12
7C
6E
79
11
14
70
7F
04
01
09
7D
01
03
0B
03
09
7E
79
76
7D
6E
11
06
12
71
6E
6F
69
03
78
05
6B
07
0D
05
78
5E
01
0C
73
0A
7D
6F
74
0C
6C
0D
6B
04
00
16
75
06
75
6F
73
77
6C
0E
0C
12
6A
6B
10
6B
79
07
01
7E
09
08
71
66
04
7A
73
6A
00
6E
10
1F
0D
03
16
7F
67
08
08
79
77
0F
7E
13
09
09
0B
11
6F
5E
70
6D
7F
0C
13
73
09
09
04
78
0D
77
12
7D
6B
13
01
75
5E
7D
71
6D
11
73
71
70
70
0A
12
75
0A
1E
7C
0F
10
7C
02
00
72
72
07
18
08
77
68
6E
01
61
09
6B
0B
24
74
77
0C
0F
00
10
6A
05
07
78
77
13
71
10
03
06
73
08
7B
09
00
72
16
78
10
01
72
1C
03
7C
6C
05
6A
79
71
7B
02
0B
11
78
7F
08
69
05
75
09
12
75
70
0D
15
7A
78
6B
78
6C
11
7A
6A
04
74
77
00
10
16
75
7E
07
0C
7C
7C
09
1D
75
08
05
0F
0C
72
67
6C
15
6E
06
01
72
01
15
0B
7C
77
6D
69
14
6C
7E
02
08
72
0F
04
67
17
6D
0B
75
00
1E
69
01
0E
78
74
6D
7E
70
72
77
0C
08
72
0A
6F
08
7A
0C
79
6F
77
14
02
75
7A
6D
72
6B
0A
08
6F
6E
06
7A
12
72
04
79
00
00
74
08
08
00
73
7F
74
0B
0A
09
6D
6F
05
7D
6C
6C
06
14
6B
70
77
70
7D
11
5F
0C
0A
09
7E
78
0B
00
79
70
05
7F
71
01
7E
0C
74
79
6E
6C
0A
6C
14
19
78
00
6C
00
08
06
6F
69
7D
18
0B
6F
05
6E
11
73
11
10
04
65
0F
10
70
04
71
7A
7F
70
08
7C
78
12
0A
6B
71
6F
16
73
78
0E
7D
73
7F
01
6B
12
6E
0E
11
69
0A
05
75
13
79
7B
0A
6D
72
6C
01
0C
76
06
0D
6B
12
00
7D
6B
04
79
72
0B
13
01
14
78
7A
7A
12
0C
01
75
08
6E
10
77
7D
04
04
7C
74
7A
0F
00
7B
79
13
0B
75
72
72
0E
13
0B
0B
00
6F
6D
0D
07
7E
71
7F
02
7D
78
6C
78
69
00
6B
79
10
06
7D
79
00
09
73
08
76
7C
73
00
0B
15
0C
05
6D
0B
0E
0B
7A
13
0D
72
10
08
7F
73
07
11
09
09
12
14
6F
7F
03
15
7D
04
06
7A
0D
07
79
11
05
0A
6F
0A
6E
74
7F
0F
76
07
06
02
6D
77
7D
73
76
7C
7B
78
6A
10
01
09
0F
06
11
7A
79
79
06
04
6A
04
0E
74
75
11
02
00
0D
76
7F
04
10
73
79
74
11
70
69
79
71
04
6C
03
05
6B
01
0A
0A
7B
10
7F
03
03
05
02
7F
0F
11
0E
74
77
74
6D
05
75
74
0A
7C
03
07
10
05
13
78
10
11
13
71
13
00
06
17
6D
0A
10
68
74
77
00
05
7C
0A
74
7F
7E
7A
05
0D
00
01
0F
0E
7D
11
6B
6D
07
7E
7D
7C
78
76
08
7E
77
12
71
0F
77
13
13
7E
0F
70
7B
12
76
73
07
7F
13
01
77
7C
08
7D
6C
04
0C
72
70
73
0F
01
70
7B
14
72
04
0D
0A
73
6D
77
7A
76
78
02
7D
09
02
11
0F
08
77
74
0D
12
7D
08
0D
71
07
6E
07
08
6E
0C
04
7A
0F
02
6F
02
08
72
78
0A
12
6E
19
7E
13
12
70
7B
03
02
00
7D
03
12
78
06
0B
7A
04
02
78
13
6C
71
7F
76
0D
12
13
0C
76
12
10
14
6F
6A
07
6B
07
0C
12
0D
6F
73
0A
79
75
6F
7E
77
01
08
01
0D
05
7B
0F
76
00
75
02
75
73
77
75
13
05
12
08
11
04
6D
7C
08
12
09
06
01
0B
69
14
75
10
6C
05
78
14
03
08
6D
74
77
79
7A
06
03
11
0E
6C
77
79
05
6F
12
7C
0B
6E
06
0B
09
00
0E
75
7D
13
74
7A
09
13
7A
0F
7A
6E
14
7E
7A
0A
02
10
03
7F
7A
02
73
0B
72
13
08
79
0E
7A
07
14
76
7A
6F
12
75
7D
09
04
72
0D
71
76
71
10
11
0C
6F
05
10
6F
7D
7C
01
09
05
76
06
13
0F
13
71
7B
07
15
12
7D
13
03
11
06
7E
10
79
72
6D
6E
09
0D
7F
71
6E
6A
05
76
74
75
15
74
78
0E
11
06
73
7F
7C
6E
05
12
7F
79
6C
01
7F
13
10
0E
6F
0A
70
75
05
04
76
00
06
70
70
01
7C
0C
0A
13
05
69
7E
0A
7E
72
76
13
7D
01
7C
12
17
7F
6D
6B
0D
13
75
07
06
0E
0B
06
79
12
76
05
75
7C
7F
6A
0B
19
0A
06
00
00
78
0D
0B
79
71
7A
17
6F
71
71
75
07
6C
13
6B
08
79
75
72
77
7A
71
07
71
06
09
01
79
12
03
0B
72
0B
0D
72
6F
03
70
72
08
78
05
7E
13
79
11
13
09
0A
7A
11
6E
04
6D
0C
02
08
7B
0F
02
01
05
15
72
0D
6B
0F
77
69
75
0E
09
7C
7C
09
07
0D
76
70
06
0B
7B
12
00
00
6B
7E
6C
6A
7D
7D
00
71
6C
79
0A
0B
11
76
76
05
7C
75
12
71
6B
13
6C
7A
0E
74
0B
14
05
02
79
0D
08
0A
0B
77
0C
76
08
05
6C
76
08
74
07
01
73
0F
75
73
01
11
7D
07
74
0E
09
7A
76
75
12
7E
04
7A
77
6B
00
7A
75
16
07
04
0A
14
13
06
6E
08
09
0E
16
1A
06
09
6D
0F
70
0E
6F
6D
6D
12
00
0F
09
77
7D
0D
0D
0A
79
7F
7D
05
72
6F
03
79
0E
08
09
73
75
72
6F
7F
7D
00
7B
04
6B
7B
7F
6F
06
0F
6D
04
0B
6D
06
75
7A
19
05
01
6D
15
01
03
0A
03
06
7C
1A
04
09
6A
04
19
04
7A
7A
00
07
6C
0F
0A
0B
7C
0F
17
05
7A
13
0E
74
0B
7E
6B
7C
0E
0D
78
78
78
72
08
7D
0F
79
02
69
78
6F
0A
09
77
10
76
1D
0C
05
7E
72
7C
7B
6C
6C
78
6F
0F
02
78
17
71
08
1E
08
00
0B
7E
01
19
0F
7F
0E
7E
7B
7C
7E
0D
68
6B
73
06
6F
79
10
76
71
01
6E
75
09
08
78
6B
73
6C
02
14
0D
08
0A
01
6B
77
76
6F
7F
6D
10
69
00
24
72
6C
72
03
77
0C
79
02
1C
0B
00
72
7D
0E
1B
7B
79
79
07
7A
00
77
02
7C
06
6E
00
71
0D
79
6F
11
0F
71
01
00
04
0D
75
7E
10
01
7A
7C
02
6D
0A
7F
0C
05
00
6E
02
08
0C
7E
78
15
15
7C
6F
7A
7E
0B
7F
05
79
73
71
77
05
70
6C
71
7F
73
11
0F
74
17
04
7B
0D
0B
71
00
11
75
74
77
75
5F
06
0B
1E
77
7B
7B
04
77
13
06
00
0D
78
03
7D
79
06
14
6B
6E
7F
79
01
7F
6D
15
0A
0E
11
03
78
09
7B
6F
74
72
0E
6F
13
6F
06
7C
6F
09
6E
0E
14
0C
7B
0E
10
7E
7B
7C
15
0B
0E
6E
6C
70
07
11
09
7C
73
0D
01
6D
16
72
05
15
6C
7F
7E
73
77
74
05
05
13
0B
12
73
0E
14
7B
76
7C
06
07
11
6A
7F
12
0F
09
04
05
15
7A
03
0B
7C
11
6E
0A
7D
0E
71
7C
74
6F
7F
19
0E
09
79
07
01
00
7C
7E
77
09
10
18
7C
10
01
7B
6D
16
17
77
7F
0A
0F
74
10
03
0D
10
0E
07
69
04
77
10
74
7A
73
73
10
15
0B
05
11
11
10
0A
11
79
0F
6D
12
13
0F
7C
7C
6A
06
76
0C
79
72
6E
7B
6D
02
7C
0F
07
09
72
00
05
6F
0A
7D
01
04
0C
6D
0C
7B
06
73
02
04
06
7B
78
6F
7A
08
7F
74
03
69
6F
78
09
72
7B
0C
75
71
7F
7B
75
7B
00
0E
7C
7E
0C
03
6F
75
70
70
76
0F
15
02
75
04
7D
74
10
0A
78
78
7B
72
09
6A
0B
0B
6F
11
7D
09
0A
6D
0F
78
6C
11
7D
6C
0D
05
0A
7A
79
06
07
77
01
0A
7F
73
00
77
0A
75
11
6F
6B
70
09
7F
10
72
0A
00
13
71
74
07
13
10
02
73
08
05
78
02
11
10
12
70
71
7E
7A
70
0A
0F
71
06
71
7D
0A
0A
00
06
6F
7D
74
14
0D
16
69
75
69
09
74
6A
73
06
0A
03
7E
74
7D
05
06
02
71
73
0F
73
71
0A
02
07
68
01
0F
79
70
09
08
11
7F
0C
08
0B
03
15
70
69
00
6B
02
14
13
7A
6E
6C
73
1B
07
04
0F
0D
72
08
0F
7F
0C
6E
72
6F
75
03
79
6B
7C
7F
0B
03
0A
06
7A
02
0A
0E
6E
06
14
7D
11
13
6F
6C
05
79
71
7B
05
71
14
01
70
7A
77
6A
0A
0E
0A
6D
72
02
79
6C
6E
7E
0C
0D
6D
01
76
69
7A
72
09
06
00
15
78
0D
09
78
72
03
0F
78
70
00
78
74
78
0A
02
7B
06
6F
11
09
0F
7F
72
0C
0B
7A
7C
12
0A
09
12
78
03
14
72
6A
0C
6D
00
0C
7D
0C
08
03
77
79
12
67
0B
70
69
11
71
09
63
7C
6D
0C
6C
7C
05
05
0F
11
01
76
76
00
77
15
79
6A
09
13
06
05
05
0A
6C
72
0F
77
6F
12
05
78
06
71
6C
0B
17
00
6C
0B
08
72
7C
7E
7D
72
6D
05
0C
74
0A
76
70
07
73
12
71
7D
15
09
67
73
7D
03
02
02
16
16
72
73
72
0F
13
7D
7B
07
0F
0A
6D
05
02
10
06
79
76
06
7B
0B
0A
77
05
02
13
13
69
6E
6B
05
01
7E
14
72
02
01
11
16
73
7E
7E
10
02
6C
02
6F
0D
76
1D
1C
0C
06
0F
74
7E
04
72
7E
03
0C
05
06
0D
05
7D
69
05
0D
73
6B
75
05
00
0E
6F
7B
70
7F
07
6E
08
06
77
00
0B
06
74
70
7A
7D
72
73
10
15
00
17
7B
77
74
6C
71
0F
7A
04
05
04
64
7F
75
04
11
10
16
04
7C
6F
6E
76
0B
7B
03
03
08
74
7E
0A
7C
0A
11
14
06
7F
00
76
07
11
0C
7E
74
6C
7E
01
06
1C
05
0C
71
7A
7C
78
10
0F
0E
6F
7F
6E
6A
0A
1D
0A
7F
79
75
06
07
68
0E
7D
0C
0D
70
02
01
6B
7D
03
6D
6E
7E
09
76
14
75
6C
05
78
68
76
73
75
12
6D
76
13
0C
6B
01
05
7B
79
74
7C
04
6B
11
75
0C
6F
1D
17
05
07
00
0D
6B
78
13
7D
12
7B
70
13
76
11
79
79
72
65
13
0E
0A
13
13
09
04
7C
09
0C
16
68
0A
6D
7D
0F
20
6E
69
04
07
07
05
70
7D
7E
00
60
06
72
0D
79
74
13
7B
69
7B
04
00
03
14
7F
14
0E
22
03
13
07
08
7B
05
6D
01
0A
1D
6E
75
77
72
03
05
20
79
02
03
72
13
74
12
06
05
02
6F
6B
79
7F
7A
0E
73
12
11
6F
16
04
01
69
75
6D
00
0E
7C
02
09
08
76
7F
23
6E
7A
15
06
75
71
03
6E
01
03
6E
7D
19
75
00
04
03
13
0E
71
77
12
73
01
7D
0E
7C
05
77
07
76
6E
75
7C
08
05
74
12
74
6D
0D
04
0B
12
7F
13
0E
0B
13
7D
0B
75
00
11
74
7D
6A
6C
02
7E
6D
01
11
78
07
0C
06
5E
05
7A
70
0A
72
03
7B
10
72
67
12
13
02
75
13
6C
6C
6C
6B
7D
0A
76
0E
7A
70
10
0F
14
0C
6B
7C
11
70
04
0C
12
0C
72
7F
7E
0D
69
03
71
73
0F
02
10
6F
77
12
70
04
75
0F
73
06
6E
7B
75
73
00
71
77
0C
0F
15
03
6F
15
76
01
6B
71
0D
73
79
11
71
0E
0F
76
0B
68
7D
74
07
7F
7F
76
0D
14
0B
6F
79
76
76
77
17
17
7F
71
11
0D
74
01
75
03
12
09
02
1C
7E
76
0C
13
78
64
06
01
0B
78
0B
78
70
0E
05
0A
13
0C
75
72
6C
09
6D
7B
76
11
07
77
12
76
74
71
7F
7D
74
0C
0A
12
7D
1A
14
0C
63
13
0D
0E
02
10
74
77
71
03
79
6C
00
70
73
1A
70
7F
7C
0E
02
7B
77
13
0C
0B
0B
77
26
05
09
7D
7F
75
13
7A
14
09
08
7E
7E
0A
0D
5D
0E
67
0A
0A
70
04
7E
0B
71
06
06
5F
6C
79
74
78
07
63
6A
0D
02
01
09
7F
0F
0C
7F
22
71
00
6F
1D
7E
77
0E
05
63
75
0B
72
76
05
08
73
08
00
73
71
6F
02
78
11
6F
04
18
10
00
08
75
04
7D
64
77
07
68
07
18
13
0E
7C
7C
7F
0E
72
74
7C
14
04
02
12
6C
7F
7A
04
10
09
72
76
72
0C
08
0B
0C
73
6C
6B
01
7C
17
0A
76
14
7F
6B
71
7C
7F
77
0C
12
0C
0C
6D
77
73
6D
23
7E
6F
19
03
6C
79
10
01
0C
75
7E
09
78
6F
63
13
01
61
79
0A
03
02
14
79
6B
06
75
05
0D
6E
00
08
02
08
02
6F
7C
72
7D
70
7E
7A
0C
01
1B
04
0B
04
6B
03
7B
03
12
0A
78
03
12
70
0B
7C
12
07
70
0C
6E
07
07
6F
7F
6F
75
00
13
75
74
05
68
10
11
18
70
06
07
11
61
76
6D
77
6E
0A
00
13
6C
00
6E
73
0D
6F
0F
0A
72
03
73
6C
0C
0A
14
0A
12
11
0F
73
73
0B
69
08
67
06
6F
7B
6F
07
73
70
13
70
06
0A
02
06
10
0B
06
78
08
74
00
13
6A
71
74
04
06
05
74
75
71
7F
06
03
74
01
7E
71
76
78
7E
12
11
06
79
6C
6C
02
0A
06
0F
7B
10
7B
78
0A
76
05
69
7C
0E
0F
70
11
0E
0C
77
11
7F
6B
14
10
76
79
78
72
01
10
71
6D
6D
0D
74
79
01
0B
7F
69
04
7E
79
6E
0A
7F
01
08
7A
6D
13
07
73
03
02
09
06
79
6F
05
0E
10
69
05
06
6B
75
7B
72
6B
0D
09
12
13
06
0C
0E
77
7A
79
7D
72
04
15
73
6D
70
7A
7C
04
7A
0B
05
7E
6C
74
69
06
78
7F
7D
13
0F
09
0B
70
71
6E
7D
71
74
0E
7E
7B
74
73
14
77
15
12
12
08
73
11
0E
11
02
0F
78
7B
75
0E
70
11
07
03
0B
14
7A
76
72
08
6F
14
00
03
7F
74
02
02
09
0B
0A
6C
10
05
7D
0E
79
6E
6C
11
74
05
6E
7E
71
71
0D
7E
77
00
18
6D
03
76
6E
6A
6D
68
05
6F
00
79
78
77
70
03
13
07
7D
76
75
75
70
06
10
6F
01
01
0C
17
0E
6F
71
08
70
00
77
6A
14
0F
14
75
7A
02
72
19
70
71
02
10
7E
7C
12
04
19
7A
73
7D
6F
16
01
7C
6F
78
03
12
0F
0A
06
77
74
10
0B
79
04
05
6B
77
7E
04
76
11
06
03
79
6E
10
11
7F
14
7E
79
74
72
71
7F
73
07
77
6E
11
6C
10
04
03
71
09
12
10
06
73
79
6F
01
0C
10
6A
06
04
7B
6E
71
7A
7D
73
79
03
77
10
74
11
77
05
7C
10
00
14
0B
0A
75
14
11
6D
01
76
71
03
03
06
69
0A
76
75
76
04
03
76
06
75
74
0C
73
7A
0E
02
7F
11
0D
74
0B
0D
05
6C
75
75
02
74
12
7A
77
06
70
12
76
04
04
13
7D
73
09
09
76
06
07
08
11
15
7B
02
7D
05
02
02
78
7F
19
75
01
09
0D
7D
70
0A
07
79
0E
06
7F
17
7D
6C
0F
02
05
00
77
72
6B
0A
6E
01
7B
09
00
77
72
6D
13
7D
10
08
78
6E
74
0C
7B
6C
0A
00
70
0D
0C
00
14
0A
7C
6B
03
7E
7E
07
0D
08
08
71
07
6F
69
71
78
79
7C
0E
16
76
76
79
7D
03
6C
0D
01
71
0C
77
08
7C
74
6E
07
01
7C
06
01
11
7A
04
04
73
1A
7B
77
69
06
71
01
70
6B
7A
6A
75
69
6F
7F
05
04
79
6F
00
04
01
6F
73
10
77
76
01
70
10
13
7A
78
00
0C
0C
76
7D
0E
7D
77
00
05
6F
6C
76
76
67
75
7B
11
0E
73
70
00
75
7E
11
73
6E
0C
71
14
13
10
01
0E
0C
03
7C
6C
0D
7C
03
6A
76
04
7F
12
0D
01
17
09
7E
07
7B
09
14
6F
15
7C
06
15
04
13
79
04
6A
7B
07
7A
6E
70
72
03
6C
10
70
07
76
6D
7C
70
14
76
6D
0F
00
0C
0F
6F
0F
6E
72
0B
0D
0B
0A
11
7D
6A
04
13
70
13
05
7B
7A
12
77
0A
7F
10
06
01
11
0A
06
03
11
7B
7E
10
11
0B
77
6E
0E
71
17
72
11
79
03
7D
7F
69
0A
11
03
08
7C
09
00
72
76
15
7C
70
0D
7E
11
09
73
01
09
0F
07
17
13
75
6A
6A
02
7C
06
0E
75
78
7A
03
7E
7D
0C
6A
76
03
12
08
72
0B
13
09
71
11
09
08
6E
79
75
6B
70
6E
69
00
7E
73
75
12
70
0F
6C
0C
03
08
0A
7F
6C
00
70
6D
1D
6D
75
0E
11
72
77
75
13
7E
6A
03
05
6F
6A
7F
0C
6E
6F
0B
70
13
6A
03
04
00
73
74
7A
6C
77
76
0F
03
76
69
7B
0C
74
0D
69
72
12
03
08
0C
78
0A
0E
66
75
7D
01
78
7B
6A
0F
7F
7B
01
02
01
7A
01
0A
02
78
6E
6D
7E
01
0E
03
74
75
7E
6C
77
03
7D
02
10
6A
14
73
75
76
0E
07
0D
6D
7B
11
0F
00
1D
0F
7A
6D
08
02
7E
02
1B
6B
06
0E
78
7C
0F
73
7C
79
11
7C
76
03
18
0F
77
0D
17
01
13
07
6D
03
02
0C
08
71
02
79
72
15
0D
0E
7A
20
75
72
01
6E
7F
0C
0E
6C
06
79
15
6D
7F
73
0D
0E
10
75
0A
74
73
69
02
72
1A
72
13
14
79
00
02
12
7C
73
08
04
76
08
6C
6F
0E
7A
69
7C
0C
00
7F
75
76
10
7A
71
78
71
03
01
7E
6B
12
6E
0F
06
6B
78
79
05
0D
13
76
05
14
0C
6C
04
76
6B
7C
0C
09
12
15
05
7D
0C
15
06
19
0F
79
7C
70
0E
7D
05
6A
19
6E
77
0A
13
13
7B
0D
7B
62
0B
7C
0A
6F
09
7E
05
63
0C
02
17
7A
7E
12
09
73
79
0D
70
07
69
05
12
6C
72
78
0E
7F
03
70
02
74
0A
09
07
14
11
77
11
0F
75
02
0A
71
70
6F
12
7C
77
02
7A
6B
6C
70
18
0B
71
06
73
72
7A
16
06
72
7D
0F
13
0E
0C
03
0B
14
06
0F
12
07
7D
69
6B
16
0F
13
7A
7B
0A
03
78
0F
0F
02
10
70
05
71
7C
0D
76
0C
6A
7F
7C
0A
7E
0F
74
7E
10
67
6B
72
14
04
0F
68
70
08
04
0A
7F
74
06
00
76
0E
78
7B
7D
0E
0D
09
02
7E
6F
6A
6E
7F
77
72
7E
71
19
13
72
6D
6D
03
04
08
6A
76
08
7D
6A
0E
0A
7E
06
78
74
05
76
6C
71
0B
68
74
77
73
03
7C
6B
15
7F
09
00
09
05
6B
0C
16
79
75
73
07
68
76
7B
78
6D
0C
7A
77
71
7D
7F
7C
77
7C
0A
06
73
00
79
78
7B
6A
11
73
6F
78
75
7F
01
6A
7D
77
09
7B
0E
79
18
10
73
7F
7B
79
08
7D
7E
07
09
0D
6E
72
6C
77
79
73
0F
79
7E
78
17
0F
0E
12
08
1B
7C
7B
04
14
75
04
07
0D
0D
09
6C
74
02
05
12
19
12
7B
71
10
02
0E
7F
71
6C
6B
78
77
75
0A
18
6A
73
7F
14
7A
7A
00
7D
11
14
71
7C
0B
7A
74
75
01
0A
0B
78
14
03
70
02
7C
07
08
6F
09
75
76
6E
73
7E
6B
12
09
0D
70
6A
7C
6B
14
06
6B
72
6C
7D
7A
09
10
6B
0F
74
7C
77
69
12
72
0E
09
11
13
6C
0A
0C
79
0C
77
6E
06
08
7E
14
78
77
75
7E
11
79
6A
7E
00
17
7A
7F
7E
06
7D
71
77
03
04
75
05
75
70
71
75
78
08
09
0F
08
73
6C
78
09
7B
73
70
7A
07
0F
0F
0B
07
18
0C
04
08
74
03
74
6F
7A
72
6B
16
6F
73
64
07
08
00
0E
6A
12
0A
03
73
0C
76
0A
13
70
7D
02
0E
70
00
70
71
76
00
0F
15
17
7F
16
7A
74
70
77
0D
73
02
06
6B
07
7E
75
02
73
0C
7A
02
6E
74
68
0B
13
6C
05
03
72
6B
0D
12
08
7A
07
11
6B
72
6D
7F
0D
03
73
12
6D
7F
0B
08
74
00
73
76
70
75
01
07
02
07
0E
03
72
7A
70
03
07
01
72
12
7B
74
07
0B
09
73
02
7A
15
78
73
03
02
0A
7E
6D
07
6F
6F
6A
6D
64
08
11
7E
02
0A
05
08
70
00
14
7D
11
10
7A
13
70
0E
09
7A
0E
07
6D
0D
72
7C
0A
72
06
69
01
17
6D
0A
00
6E
7B
71
75
69
05
7A
02
6E
0A
78
05
0A
07
70
73
7E
6B
03
04
7A
6C
6C
78
7C
0C
10
71
6F
14
71
08
6E
0A
0B
02
13
0B
0F
06
04
03
7E
6C
7E
6B
73
76
6F
7E
1C
7D
02
71
77
7D
7B
73
10
09
0F
76
0A
04
7E
6D
13
71
0E
7D
6A
73
73
6E
04
06
12
04
04
13
0B
78
7B
0B
73
07
0D
14
03
07
79
1C
0D
74
69
02
77
0A
7B
10
7C
04
7D
05
6E
0D
7E
06
7D
1C
0D
10
09
68
6F
0D
6A
0A
1C
0C
10
05
08
69
07
6A
77
0F
7E
6F
1E
6E
07
08
11
77
06
6A
6C
0E
7F
14
7B
0A
07
7A
6B
0B
70
13
00
0A
08
6E
7D
72
1A
71
01
19
79
79
10
76
68
70
7F
00
0E
01
7A
13
7E
73
72
78
02
10
71
04
74
01
6A
19
6E
02
73
67
6C
1A
75
05
05
64
73
0F
79
7A
14
72
6C
7D
0B
08
01
00
09
0C
6B
6B
7B
69
05
0A
08
07
6C
02
00
7A
74
79
6F
70
73
07
6A
73
7C
0E
71
71
09
09
7E
63
13
0F
00
7B
13
11
72
06
05
03
00
0C
01
0E
6E
16
6D
7F
6F
0C
12
7C
72
12
70
10
0D
15
0F
6E
6C
00
6F
76
7E
02
6D
08
70
0D
09
14
14
72
74
02
04
12
18
05
6A
6F
00
05
78
6E
78
0C
76
06
76
07
6A
6C
0D
14
7E
75
0D
13
13
02
09
09
01
0C
0A
04
0A
74
74
12
6F
02
12
6F
02
13
6A
7F
77
7E
76
11
06
11
71
6E
78
6F
77
73
74
7B
69
01
74
06
6D
77
07
02
75
17
7A
07
7B
00
07
76
7E
15
15
7A
7B
0B
10
7A
12
6A
0B
6D
0E
15
08
11
7C
01
11
6D
07
00
79
6F
7D
6E
7A
69
6A
7E
72
15
7B
0E
6D
75
7F
00
6F
7B
72
7F
0D
1A
14
06
7B
08
6E
6F
15
0F
00
0C
00
09
07
7C
6F
7B
05
13
77
74
6D
75
0B
68
6A
70
77
7E
73
7C
0C
13
77
08
6A
7F
65
15
74
0D
73
0C
7C
69
1E
09
0B
76
6F
18
73
0D
00
0A
07
02
73
0F
0C
7E
1C
07
7C
02
7F
09
10
05
6D
05
7A
05
72
77
05
10
7A
71
6F
11
74
6D
0F
0D
01
78
6C
0A
75
02
7A
70
75
73
03
6C
1B
75
6D
7E
6E
75
0F
62
66
11
71
6F
0C
76
7A
0A
6D
7D
7B
7E
65
04
09
7D
6F
6E
18
70
1F
0B
6A
75
75
03
7C
07
73
77
03
76
73
6E
69
6C
01
25
7E
05
6E
76
7B
0A
00
13
65
6F
0A
71
7B
0B
68
6F
6D
08
12
72
02
0D
5B
6E
73
0C
79
04
1A
7E
11
71
6D
12
05
01
7D
03
7F
00
7F
01
7F
0E
03
6B
6C
7E
13
10
6F
0B
79
13
05
14
79
0E
09
79
7B
75
18
05
09
0E
07
10
73
71
6B
76
7D
74
7D
06
73
74
0A
11
08
78
76
01
74
7E
75
7A
03
11
6D
08
70
76
7B
73
13
11
0B
14
6E
08
6D
7E
78
7D
74
09
18
6D
6A
7F
69
07
17
75
00
67
72
77
77
15
10
06
0E
23
78
7D
7A
7C
0D
0C
71
05
79
07
76
7E
79
11
64
70
68
12
08
6B
72
0F
72
13
0F
71
7B
6C
05
74
70
6C
6D
73
7C
05
70
03
6B
0F
77
75
01
71
13
7B
7F
76
7B
7E
69
7C
76
6E
7E
03
0F
74
13
07
08
13
7B
63
16
10
09
72
0B
7F
00
05
13
0B
0B
7D
0F
77
77
0E
6E
75
7E
12
00
6C
0C
71
6A
6F
74
70
10
76
77
6E
03
66
6F
6B
70
71
02
12
0F
6C
03
74
14
73
07
76
13
76
10
73
70
7B
05
7A
07
69
6D
7D
08
74
7C
7C
1B
09
7E
1C
0A
79
01
15
0D
6B
05
76
7D
72
7B
18
6C
10
6F
05
12
10
08
0C
72
73
09
74
6F
6E
11
0F
13
09
76
10
7B
0F
06
6A
6E
73
0C
7A
0F
6D
1F
73
1F
0D
7C
0E
13
02
12
06
09
0C
09
7E
09
71
73
00
09
12
78
08
12
05
0D
6C
0D
71
0F
7C
78
7F
6F
10
0B
73
01
05
12
6A
6D
7E
6E
00
09
6D
0C
7B
1F
13
0F
10
77
74
08
6D
69
09
6B
6A
72
6F
0B
75
14
06
15
16
73
03
76
16
06
69
6E
6D
70
6F
6B
12
00
6D
06
76
0B
06
0C
09
6C
6F
7A
06
7E
7A
7E
6A
0B
7A
70
08
06
6E
7E
7F
79
0F
13
74
11
7A
11
0E
72
74
71
0E
70
0B
10
70
74
00
0A
00
7D
7A
10
7D
6E
0C
6E
6E
76
6F
06
6A
0F
13
79
6E
6F
14
01
09
00
07
6E
07
72
7C
6F
6C
6D
14
75
7F
0E
0F
14
0E
13
7E
0A
7C
07
74
09
7D
72
79
71
78
73
0D
06
72
7F
7C
02
12
7F
6E
07
7D
75
08
05
72
0E
12
77
6D
14
7F
18
6B
7E
7C
0C
69
71
7C
7F
0C
6E
7B
69
77
77
09
0A
7C
07
0B
0B
6D
6E
7E
0C
7B
75
08
71
06
08
79
72
18
72
6D
6E
02
70
78
0C
6C
05
7C
7B
71
77
12
14
0C
02
7F
0D
0A
16
77
12
6C
17
01
11
06
12
02
04
75
12
01
74
08
73
7C
08
05
0D
10
76
01
70
75
79
01
76
7E
79
6A
09
6C
6D
0F
7F
11
6E
08
72
7A
71
7A
0A
6B
6F
6B
6F
6F
7A
70
09
6E
77
70
0A
17
04
77
11
7A
78
7D
0C
02
05
05
0A
72
0E
13
72
76
79
07
13
02
75
12
6D
6C
0D
75
7F
7F
10
12
0B
7A
15
02
6F
7B
71
12
71
08
6F
10
16
12
70
7F
75
03
10
01
05
74
08
74
02
01
6D
09
79
7D
6C
70
10
08
05
6E
04
71
10
6A
03
12
01
71
08
0C
0C
77
00
06
70
09
02
05
0F
0F
78
10
13
7F
77
71
09
01
7B
69
0A
70
0F
6D
0B
0A
76
7B
78
13
70
75
09
02
70
12
70
01
74
05
7E
72
06
10
7E
0E
12
15
6C
00
74
15
6D
08
08
6D
08
7B
6C
70
77
0D
6E
0D
7B
6F
70
6C
7D
09
79
0C
73
07
6F
06
79
6B
78
79
01
6B
6C
6F
04
79
02
01
76
00
7D
0E
07
00
10
6B
0E
7A
10
7B
7D
18
02
6B
73
03
71
6B
6E
6D
0A
79
12
03
76
72
02
17
6E
0D
0B
03
71
6C
6D
10
03
07
6B
7C
18
7E
7E
7C
69
0E
78
7F
7D
78
15
06
04
7E
75
7D
77
72
01
73
71
02
77
09
0D
0D
0B
7A
7E
79
0E
6C
02
6F
0F
10
6E
0E
79
04
7F
7A
0C
70
72
00
02
08
7A
78
0F
6D
7C
12
00
15
70
6F
6E
73
02
10
13
10
69
03
78
18
10
71
05
70
73
03
6C
08
0F
03
09
0E
71
01
10
08
7A
74
06
7E
71
00
7E
72
76
6F
04
12
0C
04
7A
13
02
0E
0C
7D
78
13
76
05
03
75
17
7D
75
07
77
7E
72
75
7F
13
79
13
03
11
7C
06
12
0A
6D
04
78
6F
7F
01
77
79
6E
6C
7C
01
05
08
05
6C
7A
7F
6E
01
78
78
6E
76
69
7D
0D
0F
07
06
6B
7A
7A
78
0B
0F
0B
7C
07
76
12
71
75
04
13
02
03
0F
10
02
11
08
7C
01
02
0F
7B
0E
0F
73
7C
00
74
03
76
11
05
08
79
07
75
79
7B
0A
7E
09
06
09
76
0E
73
7F
05
7D
6D
07
12
0F
6D
70
7D
05
0A
08
0A
13
7A
0C
78
14
11
12
70
05
09
6C
0B
05
02
06
0F
78
0E
02
06
05
04
09
03
7F
7E
15
09
02
7C
7C
0B
79
0D
6E
7C
00
7C
05
7E
08
0B
0A
03
6D
0F
0F
7F
78
78
15
02
16
11
0E
08
07
7B
11
7F
6F
08
6B
07
70
7E
72
05
72
6C
04
73
11
15
7F
6E
09
73
6A
11
76
02
73
6F
13
74
09
02
78
07
14
0B
7B
0B
08
7B
7C
7D
10
17
09
02
0E
6D
7E
7A
6D
01
11
76
12
75
0E
7F
71
75
02
0C
0B
09
72
73
06
77
7D
07
15
71
7B
01
6C
73
03
04
0C
03
0F
0C
17
79
12
10
6B
7C
10
7B
76
73
74
03
7C
01
78
07
74
7D
01
7A
01
04
05
0D
0C
0B
6E
6C
09
72
7E
0F
04
72
71
08
7F
01
7B
70
74
7C
6A
08
03
73
6F
7E
6F
07
0C
71
02
0E
0B
0B
06
7D
7E
7D
0B
0F
15
71
00
06
6F
0F
02
65
09
75
00
11
74
6B
7D
08
7E
6D
78
0C
79
08
6C
73
03
21
7F
16
7F
06
7A
04
03
72
06
71
74
1B
07
70
6A
13
6A
7B
16
06
0A
7D
6D
77
7A
6B
70
00
6D
14
76
75
7C
6A
13
71
17
07
72
75
7A
6F
75
11
15
10
0D
7A
10
79
01
05
05
11
04
11
0E
77
10
79
6A
0A
0A
79
0C
72
10
7C
6C
10
7B
74
01
7E
7E
78
09
7A
6E
01
03
0D
03
7B
76
75
01
72
04
0B
6F
7D
14
6D
7F
0F
71
7A
00
6F
0E
05
01
6A
7E
0B
09
7E
6F
6F
6D
15
0F
69
6B
10
7E
03
0C
16
0A
74
70
14
04
6F
07
12
05
03
70
73
08
7D
79
7B
09
71
7C
79
7C
05
6C
71
10
79
6F
07
6C
07
09
0D
0B
7E
7A
6F
08
00
74
79
7D
72
76
7D
04
71
14
03
0C
6C
75
08
0C
7B
08
0E
71
00
15
72
09
05
0F
00
07
0A
7B
08
13
72
0B
12
7D
70
06
00
7A
0F
7A
6F
14
72
76
76
6D
0B
70
70
07
69
6E
0E
12
01
6C
74
12
0A
0A
0F
00
72
0E
6D
0A
74
76
0C
72
7A
6D
69
79
6C
78
79
0B
13
0C
74
69
10
65
79
11
6B
12
13
73
71
7D
02
7B
0E
73
6A
6B
11
0F
0B
11
0D
0D
7D
7C
70
0F
7E
6A
0C
0F
08
63
08
7B
7F
14
70
12
00
06
04
79
7E
1C
13
00
6D
19
7A
7E
0A
12
12
6B
76
1B
74
00
0D
10
6C
08
6F
7A
6C
08
0A
79
14
6B
08
7E
76
0F
18
79
6D
70
0E
7F
01
7F
70
6C
11
13
01
12
74
0D
7E
12
0A
7D
69
12
0A
7C
7E
03
0B
70
13
15
01
0E
0C
01
7C
02
76
05
00
79
74
7E
7E
78
0B
0A
6B
6D
7F
0F
6E
03
61
16
7E
6F
79
76
12
7C
0E
7D
6B
79
08
15
6A
13
6D
68
01
00
72
72
7B
06
78
08
05
73
76
13
79
79
04
7E
71
69
73
09
6F
02
06
73
6C
12
13
01
70
7C
7B
73
11
70
73
08
0B
72
12
0A
7B
76
7A
77
0A
11
77
70
16
00
02
11
7A
0C
12
0E
6F
08
6B
1A
74
6D
00
73
01
6E
70
70
71
70
73
0C
0D
01
11
16
6A
02
6B
6A
01
16
10
09
03
63
0F
6F
7D
04
7D
71
72
00
18
12
0F
69
73
04
6A
10
06
6B
6E
6C
16
79
71
78
13
11
06
0B
79
12
09
71
7E
0D
0D
75
06
74
6E
78
10
02
1B
6B
02
10
7C
70
01
7A
69
6A
06
0A
10
6F
65
7B
0B
7D
7A
04
77
0E
05
09
12
6C
7A
7E
6E
6D
6C
69
70
12
6F
0B
6B
63
77
0A
12
09
72
77
10
7C
0E
6C
7F
66
7B
11
78
6F
19
7F
0B
70
0E
77
0C
6B
05
0E
0B
04
0D
70
6C
6E
05
0D
74
0C
14
74
6E
00
72
07
0A
72
7B
0C
7B
03
15
7D
00
74
11
09
6E
0C
60
08
71
6B
0E
6E
00
74
10
14
0D
02
71
15
7D
7D
75
04
7D
08
0F
74
77
6F
6B
0C
6E
7C
12
09
03
79
01
06
7D
71
70
7E
75
79
14
0E
75
76
05
77
74
6A
01
0A
03
04
73
79
75
03
6C
0F
73
08
6D
7A
6C
79
0E
67
75
77
7E
01
74
6E
7D
09
73
06
0D
1B
6F
75
7E
1A
73
07
0E
11
03
70
06
7E
10
05
73
18
05
0A
00
73
6A
71
03
09
79
05
6B
18
6E
78
0A
71
7E
7D
6B
05
7D
03
7C
04
0A
7D
15
74
72
7C
73
7A
15
04
0A
12
06
02
06
10
70
0D
71
08
13
7A
78
76
11
7B
09
6E
7A
6D
0B
15
0A
14
7D
12
05
7D
75
7D
7F
72
61
14
10
7C
77
73
0A
10
02
03
0C
00
13
13
00
79
6D
00
13
05
00
11
72
7B
7D
13
7A
79
09
07
79
75
73
03
03
5E
6D
6C
72
07
7E
77
7A
7F
6D
6E
13
02
74
0E
6D
6D
6C
04
09
11
77
6E
13
03
7E
12
6D
6A
7C
03
0D
08
02
03
70
0C
77
05
02
78
7E
1C
05
73
5A
0B
06
0B
01
12
7A
79
6F
7C
08
7B
70
03
7E
07
0C
04
0B
1B
01
76
77
05
72
7D
0B
17
06
07
02
12
7A
08
16
78
07
7F
70
6C
14
01
79
73
6C
71
00
75
01
6F
77
74
79
6F
02
72
6C
77
0A
0C
0A
73
05
70
10
7A
18
00
0D
7C
6D
09
70
71
64
0F
6A
04
78
01
63
10
75
0A
04
79
74
0B
6D
7A
70
6B
05
21
76
71
0C
02
02
11
79
7F
0E
7D
0D
6F
09
16
08
79
0B
73
08
7D
12
6F
0D
02
06
68
12
75
09
6A
0E
01
6D
78
6C
70
7B
76
74
12
72
00
08
0F
6B
6D
74
0E
07
71
08
78
0A
0D
6A
17
13
13
0A
02
6A
7B
04
1E
7E
04
64
76
74
75
70
0F
00
6F
6A
10
6D
0A
75
1E
74
06
79
7D
73
06
7A
75
02
67
7D
05
7B
73
0B
74
73
73
02
06
13
63
06
7F
79
11
13
77
78
6F
7B
0B
04
0C
0F
0A
0B
10
02
03
04
0D
0E
15
75
6A
7C
0A
0C
76
00
72
10
12
6C
1D
6E
0C
19
02
6F
0F
14
7F
71
06
6F
1D
0D
06
71
0A
11
77
12
76
74
7A
0B
06
6A
7E
6C
70
75
1A
7F
11
6F
6F
0B
0E
6E
7C
0A
6D
70
72
7C
78
09
00
11
13
0B
75
0E
7F
03
08
0A
72
04
6A
02
0E
02
72
04
6A
11
0E
7E
71
04
05
76
14
6A
0E
6F
6F
18
07
13
1A
7C
72
0E
01
0B
6A
75
7B
0D
6E
02
0D
10
07
7A
0E
69
09
7B
0D
0A
78
09
6F
75
6D
7E
7C
74
19
7F
74
00
0D
71
0B
0E
11
0A
0E
74
0D
1A
0F
7A
02
76
13
0E
13
79
77
0F
6B
04
15
7D
11
04
08
7D
79
70
76
09
04
74
11
13
0D
0A
0C
7C
10
7F
6D
79
7E
08
18
7C
78
7B
11
07
0E
6E
79
7B
7C
01
00
0A
7D
06
12
7F
01
0A
79
72
11
05
6B
05
09
12
6B
7F
78
76
0B
13
06
05
0E
73
0C
75
0A
11
05
0E
6F
10
0E
7E
13
7E
11
76
04
70
0F
74
0A
09
6B
7E
7A
72
71
11
08
6B
09
78
7A
7C
09
70
01
6D
0F
08
74
05
0E
6B
7C
04
05
79
78
6E
01
05
04
09
6D
09
10
74
79
0D
06
19
7E
0A
10
77
6B
6E
6C
05
71
0F
74
73
16
6C
75
7E
03
6D
7B
0E
00
7B
04
03
76
6F
0A
12
0A
76
14
7A
7D
7A
06
12
79
0A
74
01
6E
09
73
0A
7A
02
0E
09
7C
13
7D
73
7C
72
0D
6B
00
10
7E
19
7B
00
7B
7A
7C
7B
07
0A
00
06
7F
0D
71
7A
6F
74
7E
0E
6C
11
0B
74
77
0D
77
03
11
04
06
0E
13
6B
78
09
0F
78
0F
0F
70
76
79
7A
6E
07
6F
77
77
75
79
01
78
0C
03
0D
6E
10
77
04
12
6A
72
74
10
0B
0C
07
0C
10
7A
12
12
71
71
03
0D
02
11
6C
08
03
6D
78
7A
0C
76
02
0A
05
6E
7E
0F
7A
07
05
06
10
0B
0A
07
6A
76
12
0F
0A
11
77
7C
6E
7C
7E
77
6E
0B
7A
0C
71
7C
6B
0F
0F
79
00
06
7A
06
73
6D
09
77
0D
08
7A
09
76
13
7F
77
7F
14
73
78
7C
0E
13
19
0C
0C
76
13
02
7A
77
72
0F
04
06
7D
6B
7E
0E
69
0F
0D
6E
7C
13
74
7C
12
7D
12
73
72
0C
1A
7A
10
0C
6F
00
08
71
07
73
79
03
6F
7A
13
6D
76
6F
14
0A
77
7E
70
77
77
10
08
79
71
07
03
14
03
0C
08
74
08
06
13
05
10
14
76
07
6C
05
70
02
14
01
0D
0E
0C
06
79
70
74
77
13
77
13
6E
09
07
11
0E
70
7E
1C
01
7A
0E
6E
78
11
15
7C
6E
05
7D
0C
04
01
0F
11
0F
67
69
77
0D
78
6C
6D
6F
74
6C
07
00
6F
6D
74
06
0B
02
13
72
06
7A
75
0C
7F
08
09
75
7B
6E
09
15
7C
11
69
6E
7F
04
6E
10
12
7C
72
08
79
09
70
7F
7D
70
12
6D
09
73
7E
01
13
72
0B
16
0C
77
7E
6E
7F
02
10
74
6D
6C
17
7C
71
0B
00
11
0A
02
6A
00
01
76
74
77
7A
7E
7B
70
0D
6C
71
77
7B
71
7E
03
6D
04
07
03
0A
07
05
6C
0D
0C
05
76
68
04
11
70
05
19
6C
6E
0D
7D
06
0E
6B
05
78
14
74
78
6B
79
70
78
15
08
71
7F
6F
02
74
11
03
1B
00
6E
05
6C
6E
73
03
71
6C
7A
08
0E
6C
6D
1C
0F
15
04
74
6C
6B
03
19
73
7C
0C
03
67
15
7D
67
14
19
7E
0F
10
75
11
72
7F
15
7C
6C
0F
6B
1B
70
7F
6E
74
70
15
0B
19
79
79
03
00
73
7F
76
7B
70
16
70
0D
6C
0C
02
0B
01
08
74
07
0E
6A
0B
74
6F
13
12
7C
0A
74
08
77
05
64
6F
05
00
78
02
63
7C
6E
08
72
7B
00
76
75
00
0D
0C
0A
05
7A
14
75
7A
6B
7F
10
73
79
1A
72
7B
09
7E
11
6D
7A
0A
14
08
6D
05
0A
75
07
0B
6A
6A
71
70
13
10
74
74
09
14
0F
0B
70
13
04
75
72
04
0F
74
09
77
08
00
74
18
0D
6F
06
07
04
11
09
09
10
79
11
7B
0C
06
06
71
0E
0B
72
73
76
73
7C
0E
68
74
07
01
70
0F
7D
7C
7E
01
14
0A
71
06
12
02
70
01
02
7A
7B
77
72
11
0E
7A
12
75
7C
79
72
6D
01
6A
06
08
0B
01
06
71
13
15
74
71
71
7D
7D
7F
71
0E
12
74
6D
75
7E
13
0E
11
7E
7B
13
71
7B
01
73
6F
06
6B
0A
7F
0F
7A
00
14
6F
09
10
11
09
7E
7B
0E
76
09
12
6D
7C
77
71
12
09
01
10
7D
0F
03
6B
11
0B
7F
6E
04
05
75
72
0E
75
7E
11
12
79
04
13
71
15
7E
70
74
77
10
70
0D
7B
7C
03
04
0A
0E
0A
12
15
00
0C
7F
12
19
6D
09
70
76
06
07
6D
14
7C
0C
6F
7A
0C
69
04
71
6C
0D
11
76
16
14
77
12
11
07
77
73
7D
6B
01
74
0D
11
03
06
7F
0F
0C
0D
74
08
6B
6A
05
08
06
79
74
72
78
15
03
17
7C
13
75
10
0F
75
6B
70
6C
7F
02
11
7D
0C
78
0F
09
73
03
78
7A
74
05
77
0A
14
08
72
6E
75
13
0A
77
6A
0D
76
11
69
69
6E
16
01
12
0E
09
12
01
15
69
02
00
7D
75
79
0B
14
7C
19
01
0F
77
75
7F
04
06
77
14
7E
7D
6E
75
13
7C
0D
78
0A
0A
0B
7A
05
79
07
79
6D
78
07
0C
7A
06
02
78
09
71
07
77
7F
05
01
11
10
7A
73
76
0E
7F
7E
0B
13
06
73
0F
6E
6E
7D
09
6C
10
73
71
0C
03
05
11
09
72
76
7D
0A
71
70
7F
06
6C
79
03
02
7B
75
15
03
14
7B
01
70
0B
7D
05
0C
0B
13
73
6F
77
00
72
00
70
73
7E
0C
6F
04
10
01
6D
0F
02
08
6E
71
6B
11
07
00
08
05
72
14
69
03
14
02
14
0D
76
77
03
0E
68
7C
04
6B
09
79
05
05
6C
10
7C
10
6E
79
70
02
03
0E
08
19
78
0E
0E
77
77
16
04
03
7B
72
03
0F
10
72
0A
10
69
07
72
10
16
7D
7C
6A
7C
77
7C
6E
6D
7E
6B
73
0B
7B
76
75
73
10
07
6B
78
12
07
02
05
0F
71
13
73
0C
78
79
75
6D
6C
71
00
77
10
7F
0C
7B
79
03
0C
0B
16
10
6E
78
04
0C
10
14
08
7A
17
0B
6A
0D
12
76
00
70
04
7A
7E
6C
7C
79
0C
74
04
10
05
13
00
76
10
01
08
04
14
7D
09
00
0A
08
06
04
0D
7E
7C
00
74
0B
04
6E
7D
73
77
70
7E
06
10
6A
00
71
70
14
73
7F
0E
10
07
79
04
7A
7B
6B
09
04
14
6D
0A
6B
75
04
77
11
6E
7F
04
03
78
70
73
7D
74
0C
74
16
76
79
08
70
68
14
0B
68
0C
74
75
02
79
77
79
6F
67
14
7A
72
07
14
1F
11
1B
04
73
11
08
77
75
75
7F
0E
78
12
15
72
0E
7D
0F
18
09
78
74
75
11
6E
03
0B
6B
6C
75
0B
74
00
0C
6B
6F
1D
75
07
14
6F
01
7F
7A
71
6A
75
04
74
7A
6F
7E
04
0C
09
6A
10
79
7A
7A
62
72
6B
6D
19
6F
11
0C
7B
01
0D
69
00
75
79
6D
14
14
04
6F
6E
78
7B
76
7C
0C
7A
0A
01
73
10
1A
75
6F
0C
0F
11
04
7E
74
6B
77
71
72
7C
09
73
09
07
06
02
10
0A
67
78
0C
04
79
11
7A
6D
6F
06
04
02
07
11
0A
7B
6E
7C
7F
08
02
75
12
09
13
7F
6D
72
77
73
00
0B
05
74
6D
73
7A
6D
72
78
69
0E
79
13
7E
05
17
0A
0E
09
08
78
0C
0B
14
6E
6F
04
0C
10
7C
11
70
07
04
7C
7A
6B
6C
0C
05
10
09
79
73
11
7B
7B
01
68
07
13
01
05
07
7D
03
0C
77
12
70
18
10
0D
09
13
12
77
0B
09
13
65
03
16
05
11
0A
01
6C
7A
07
0A
79
7E
7F
03
7D
71
00
0A
00
71
17
01
0C
0A
09
0A
7A
65
73
09
04
7D
0D
0E
06
14
7F
6B
02
11
7C
7A
76
19
7D
6B
02
14
71
7B
06
0A
08
13
75
7C
73
66
0C
07
01
04
74
08
72
06
7D
10
6F
02
0B
74
7D
14
0E
01
00
03
7C
68
0E
0E
6E
01
7C
14
7E
6F
0C
77
71
03
02
08
77
67
03
7F
13
6E
16
04
6C
7E
08
6B
6F
75
6E
7D
00
6B
14
6E
75
79
71
79
02
77
03
00
04
06
6B
7C
71
02
13
6F
70
69
6D
12
0B
6B
75
6F
1B
6E
7B
1B
71
0C
7E
7B
66
7E
73
77
0A
12
79
7F
11
7B
6E
6C
14
0E
0F
13
00
0E
74
08
76
7C
08
7D
04
7D
7F
76
7B
70
0F
72
71
72
13
75
15
0E
08
7F
6D
6E
7D
15
08
0E
7C
76
09
0B
0E
06
0F
08
05
7B
09
7D
13
0E
04
03
00
78
7A
7F
07
70
09
6C
75
01
10
02
76
18
04
0D
78
02
78
02
01
1C
0B
70
07
03
12
71
0F
05
03
7C
6A
10
6A
08
7F
17
0F
77
78
13
77
04
71
11
7D
7A
09
10
6F
16
07
01
6B
76
19
0A
0E
0C
13
7C
04
07
03
0E
7B
6D
17
7C
7D
01
7A
01
13
6F
04
75
0B
75
6A
05
05
0F
7F
74
6E
10
74
05
0E
01
7C
0B
7E
6D
09
13
73
10
77
73
73
0A
63
0F
01
7A
73
06
7F
79
10
77
6B
7A
0F
7A
7E
03
73
77
6D
17
0F
7B
7F
75
09
05
0E
14
16
74
7E
7A
0C
02
03
0B
08
76
7E
05
05
79
7E
6D
6B
6C
73
75
04
06
7C
7C
08
7B
79
0D
07
7C
00
05
13
02
09
09
08
78
7B
71
08
7E
0F
08
0B
14
02
06
00
7A
76
06
6B
05
6F
70
7C
11
0D
15
04
12
0D
7D
00
19
0E
05
6C
0F
0C
78
6D
71
09
63
79
0D
19
78
0B
78
06
77
7E
7B
64
01
0E
08
7C
03
13
0D
6F
06
7D
02
71
0C
0D
01
7D
07
04
07
6F
01
03
7D
0A
6A
0F
15
12
06
13
7C
17
72
77
17
6C
75
7D
7F
08
7E
07
16
79
6A
05
06
7E
75
77
13
07
02
13
78
06
7A
70
16
1A
09
0B
19
11
17
73
7B
07
01
07
74
11
08
0B
07
6C
73
66
03
61
79
00
6C
7B
76
7F
6C
6E
6C
71
15
7C
10
02
07
01
02
0A
6F
70
76
0E
0B
11
11
7F
78
12
09
71
7B
11
0E
78
7A
01
0C
02
70
75
75
74
14
79
12
79
12
70
0A
06
69
74
01
79
6E
76
7F
09
1A
11
08
75
19
05
06
08
72
05
6F
11
14
0C
7D
19
0B
01
7A
63
01
73
62
6B
11
7C
66
05
02
73
14
75
0C
0F
7B
0F
07
09
08
6C
7A
6B
0C
73
7E
03
01
07
08
02
08
10
6C
02
11
00
04
12
02
01
0C
10
05
11
18
0F
0D
68
7A
72
79
72
70
75
20
7F
07
72
12
7A
14
02
0B
0E
77
7A
7F
77
7D
7C
0A
02
07
19
7F
0D
14
0E
75
6F
0D
0C
68
77
6E
70
0B
76
7A
76
7C
75
0B
0A
01
02
0F
10
6E
79
09
0E
7B
7E
71
6D
06
7E
7B
6F
10
08
73
77
69
79
73
6A
6B
03
77
12
69
7E
01
74
12
74
7A
0E
05
0B
10
68
10
03
78
69
6E
7C
1D
7A
77
13
77
7D
15
6F
0E
01
0A
78
7B
08
01
1A
0E
05
7D
01
77
6C
76
6A
78
15
14
01
11
02
0E
78
11
78
0D
7A
75
15
0F
6F
11
10
0E
0C
06
78
7B
06
7F
76
7A
0A
69
1F
71
7E
05
0B
75
14
02
6D
79
00
0C
7A
71
7C
7F
7C
07
79
09
12
13
69
7A
7D
71
70
05
78
76
04
0F
72
12
04
07
09
76
75
0C
76
0C
10
7D
73
01
05
6E
72
6F
0E
7E
0A
69
76
7F
05
75
7A
06
03
04
08
77
06
0E
7A
11
08
12
70
03
13
6B
7D
77
74
75
00
78
79
0F
72
04
71
00
13
6D
77
03
72
7D
6B
7A
72
0C
13
7C
75
6A
77
0A
7F
13
02
76
06
09
11
04
7A
6D
05
00
13
00
7B
7C
6C
7D
03
0F
77
7C
6C
6C
79
07
68
72
00
15
08
05
01
71
08
03
05
11
77
0D
77
04
75
01
6B
7F
6C
08
10
6B
0D
10
06
6D
7F
6C
6E
03
08
09
07
0A
0F
6F
02
0D
7E
71
00
01
7F
74
6E
0E
02
0E
0C
03
7F
0C
0F
10
0A
75
7E
1B
04
6E
15
6D
73
07
0E
07
6C
6B
7B
13
10
0F
07
76
04
04
7A
0B
70
65
75
0F
04
70
75
03
76
6B
7F
75
6F
6B
77
73
6D
7A
75
10
0E
6F
0E
0B
7F
00
01
05
0D
00
02
02
08
0C
0A
76
04
12
70
78
01
06
75
18
6E
06
78
16
78
7F
70
13
7E
14
03
7A
70
69
08
09
6C
70
79
72
6E
17
14
78
7D
78
0B
7F
0C
75
17
77
7A
03
7E
77
6C
01
10
71
6E
6B
13
0A
7E
71
05
05
15
03
76
05
0F
6F
70
08
75
70
01
01
75
07
7F
03
10
74
0B
75
08
6A
6B
73
79
70
7D
09
6E
71
74
06
6B
71
07
03
78
7B
0C
6B
76
7E
6E
08
07
6D
71
10
71
04
00
70
7C
16
0D
6E
01
74
04
0B
6B
78
6D
76
7E
7E
07
03
7C
76
0A
6A
06
7C
14
6B
78
6B
0A
11
76
06
7D
09
0F
15
00
04
07
0C
6D
14
7A
0C
0D
7D
71
0D
0C
72
0A
6D
0B
0F
11
12
7C
07
07
7D
6B
7B
72
6F
01
78
10
75
6D
78
13
79
6C
7F
13
0F
14
00
66
01
70
74
01
73
6F
01
72
79
6C
0B
0A
79
72
11
04
6B
75
02
00
69
6B
74
6A
05
7C
05
7D
71
08
08
03
6E
76
70
7A
73
0C
12
0F
04
05
70
79
05
6F
11
0C
10
79
71
18
03
6C
1A
71
12
19
70
6D
6D
6E
1A
04
03
71
00
7D
0C
00
6D
00
72
09
08
7D
00
6D
72
04
6D
70
71
01
13
11
05
79
6D
70
77
7F
03
0D
13
6C
06
0B
03
7C
0C
7F
02
7C
13
7B
11
76
73
0B
11
76
0D
6E
78
0C
76
14
7C
02
03
7F
12
08
6F
08
6E
72
7C
0B
14
76
13
6C
09
04
0C
0E
7B
79
0A
0C
16
7A
00
0D
6F
78
05
02
01
13
05
74
0C
00
0E
14
0A
04
71
6B
70
10
75
6E
08
72
6F
72
16
10
6C
03
77
6D
0D
77
0F
0E
6A
77
00
7E
7F
06
7D
02
73
75
03
6E
03
7A
0E
18
70
04
0B
12
04
76
7B
75
72
7B
6A
12
6A
0F
7D
74
75
11
71
72
77
7F
0A
7C
74
09
7C
02
7D
0F
76
70
7E
14
74
15
7F
02
14
11
06
01
70
08
77
6B
6F
76
0D
6D
6A
7A
0B
69
0D
0D
0E
76
11
0B
6D
10
7D
7E
02
74
09
6C
6F
04
00
79
01
78
00
74
10
03
03
70
13
6A
7B
05
04
69
0B
6A
0A
03
7E
78
6E
01
7E
1A
73
12
1C
70
04
14
7B
00
73
6B
7A
0C
11
6A
00
6E
7A
6E
6B
6C
01
0A
7F
7A
7D
12
05
00
13
06
0A
71
6A
74
10
00
7A
7B
74
7B
0F
7F
72
08
73
7C
05
01
1B
72
7F
74
01
74
0E
76
02
67
7A
6E
13
70
7E
69
01
0C
6D
7B
13
75
6B
7C
75
1D
6C
10
70
19
08
7C
7D
6F
75
6B
13
76
7D
21
02
75
71
7F
6B
00
71
6F
7B
7F
0C
7E
17
6C
68
0F
04
73
06
1A
7F
10
1C
79
6E
10
70
02
7C
73
11
1B
69
74
00
11
6F
67
69
03
74
79
00
73
0A
08
75
01
6D
00
10
11
68
08
76
61
74
12
0C
0B
07
72
7F
00
69
1F
06
7E
76
1D
0E
7A
08
0C
7C
6F
69
7F
7C
15
7C
06
7B
6B
04
0A
01
70
79
7E
0C
00
78
10
06
78
78
07
75
0D
14
07
6C
73
6F
08
0F
0B
03
13
6A
7F
6F
6C
72
07
79
0A
09
13
03
77
6C
05
10
72
05
77
77
04
12
0C
79
73
73
18
0C
0D
0F
74
6E
0B
71
01
6D
79
6B
6C
12
6E
14
01
02
08
79
04
05
7E
70
73
04
0D
6B
78
6F
7C
0E
00
6B
71
07
0B
7F
0F
0D
0D
6F
0F
77
7B
77
75
09
03
07
10
71
0A
10
0D
6C
08
0C
74
06
72
0A
6C
06
05
74
0B
7A
7F
11
72
7D
0E
11
09
6D
06
73
79
09
02
11
12
77
10
79
11
08
10
6A
0A
7C
00
13
02
18
74
7C
06
03
7D
0B
74
7F
6B
6E
7B
07
6A
6A
17
74
0B
02
15
7C
02
74
02
78
6A
74
0F
0E
15
7A
0A
0F
04
01
04
09
6D
7E
06
76
03
10
04
71
0E
05
14
04
71
74
02
02
14
12
00
6B
79
15
77
7F
7F
76
7B
07
6E
71
0F
78
6B
04
7A
7D
08
7B
76
78
0B
6E
74
11
7E
03
6D
7A
12
7E
12
78
10
6F
06
70
7F
0D
05
7A
0C
7A
13
6D
01
14
00
6C
03
70
02
7C
7E
7B
11
11
0F
7E
73
09
75
10
0F
0F
7E
6A
77
0B
72
78
12
0B
07
04
79
03
14
00
09
08
06
0D
0F
09
00
73
6D
6E
72
12
78
7F
79
12
02
08
7C
79
06
71
06
69
75
19
10
6D
6A
72
05
07
12
01
13
05
02
11
72
03
08
79
09
6C
0D
04
0A
73
6D
74
06
12
72
13
17
04
7E
0B
0D
00
6B
7C
11
71
0B
73
0A
0B
05
00
78
74
74
78
74
7B
14
05
7D
7F
6A
0F
0E
7D
03
7D
02
7E
0C
7D
07
0B
78
02
7E
00
78
15
0E
01
17
06
6B
0C
70
73
01
6B
7F
75
6C
11
7B
15
72
6A
79
75
08
0F
74
0E
77
01
17
7C
70
78
0C
12
01
77
75
12
74
07
6E
05
0F
08
13
6A
07
17
6D
14
09
76
12
7B
00
71
78
12
74
16
78
0B
0B
7C
7E
00
70
0D
78
10
02
04
6B
7F
0D
11
6B
7C
08
72
6C
06
0A
6A
0D
7D
08
70
1A
06
09
08
70
7F
14
6B
05
6D
10
00
71
11
6C
78
09
7B
7E
06
79
68
11
0A
0A
0B
6F
6F
73
1A
7A
09
70
04
6D
7D
77
09
7E
6D
78
05
1A
07
76
7C
70
0E
02
01
73
07
13
7F
10
76
7C
08
70
6D
65
03
04
00
7E
6B
0B
12
7D
11
7C
00
12
10
0A
76
02
08
73
07
01
10
1A
6C
10
03
6B
68
72
01
0E
05
75
0E
05
08
69
7B
0F
00
0B
79
69
77
02
7C
70
01
6F
7A
00
09
11
13
15
04
78
6A
12
0F
79
0C
66
7D
04
05
08
0E
74
04
01
6F
6D
73
05
7B
70
75
03
7B
7F
7F
0A
71
76
6F
18
03
7A
03
78
74
02
10
06
02
74
0C
78
6C
0C
7A
0C
79
00
11
0F
0C
7E
76
61
74
73
06
7C
6C
0E
7D
05
02
09
73
0B
08
7D
0D
7C
7A
14
7E
7F
0B
75
6E
0C
13
7B
72
02
78
0C
03
76
11
00
7D
77
04
01
6E
1D
02
0C
7A
15
79
00
0F
73
78
1B
79
12
7D
70
7B
05
10
10
00
03
13
04
13
03
10
7E
6D
04
0C
7B
03
6D
70
07
7C
14
0E
7B
13
70
7D
11
0A
7C
09
10
06
13
0B
65
06
7B
70
04
0C
0A
09
09
08
7B
73
76
67
7C
01
7B
08
03
00
74
6C
09
74
14
7E
6B
07
13
05
01
7E
01
79
0A
03
7F
71
6D
09
7A
0C
75
77
08
05
7D
12
6A
00
0D
7B
13
01
7A
03
6B
73
75
0F
7C
09
16
05
0F
11
6C
74
1A
14
0A
73
7A
7B
6B
13
66
73
13
6E
10
6F
7F
73
0A
12
08
0A
75
75
70
7B
78
04
6D
76
13
6E
0A
75
10
79
7B
02
1C
0D
06
15
16
6D
0D
6A
0D
13
0B
12
7D
77
09
7A
1A
12
7C
76
7E
09
76
06
79
13
7D
6C
7B
6B
12
79
72
0E
13
79
74
68
0D
10
7B
77
71
6D
12
13
6D
10
7B
1A
6E
01
08
7D
0E
01
05
0B
75
7F
08
74
0C
01
7C
1A
65
10
01
06
75
14
11
75
01
79
6E
04
76
00
01
0F
05
70
13
06
14
03
72
0B
74
0C
16
6E
6D
04
02
77
02
7D
02
12
0E
16
75
06
09
71
0C
6D
7C
08
71
08
0F
00
7D
6F
7F
7D
09
0F
6B
79
78
79
06
7D
05
1D
73
08
05
77
0E
6E
01
07
10
67
6A
75
06
0A
11
0C
74
7A
6B
69
73
18
70
69
07
05
77
09
13
13
79
7C
13
15
06
0C
0C
76
7C
06
01
72
0C
78
74
79
76
0D
6A
73
11
7A
0A
03
01
09
01
73
7C
01
09
77
10
6F
78
7B
0D
07
7A
07
04
7E
6B
76
73
71
78
09
71
11
71
6C
73
74
7D
75
72
10
7D
03
0A
12
05
11
7F
0F
08
75
0F
0B
6A
0E
04
79
79
7F
7B
6E
0C
74
70
0E
13
11
07
6B
0B
01
0B
73
71
0D
0F
0B
76
0E
08
11
7B
7A
00
7D
77
79
01
0D
74
6C
76
07
77
0A
73
74
00
12
06
73
18
07
09
0C
6F
70
0E
6F
79
7F
79
79
00
6F
0C
1B
6B
12
69
6F
7F
7F
0E
7C
7B
72
00
0E
7B
7D
6E
6C
7A
78
0A
7F
6C
78
03
79
77
6D
7C
7F
03
6C
7F
00
74
70
70
0C
6B
6C
14
6C
7E
74
7F
6E
78
78
7B
76
0F
78
10
6E
04
79
04
08
09
77
03
79
77
0E
13
0D
72
6F
0C
0B
79
6F
0F
72
71
08
74
7C
73
08
66
79
70
11
6E
10
78
72
00
6F
72
6E
13
14
78
0B
00
7A
0B
75
76
0C
03
72
0C
0A
15
79
02
73
08
6C
6F
06
0E
0E
6B
79
7B
12
7A
79
07
13
72
02
71
7F
6C
6C
09
10
74
00
79
13
0A
0B
7C
7E
04
76
06
6D
07
0B
0C
6A
74
12
0C
0A
13
7D
0F
6E
10
18
70
0B
00
13
07
0E
07
0D
79
12
00
05
01
10
6F
0F
14
74
7A
1A
03
6E
0B
09
13
65
01
18
0D
01
79
0F
78
6A
63
00
08
05
01
6B
07
74
7D
05
12
09
62
08
05
0A
79
6B
7A
6F
76
0F
0E
6C
6A
7C
7C
6D
06
72
0E
72
11
7D
07
7B
7C
0D
13
04
0D
12
74
0F
7C
75
7B
73
6E
7A
77
79
7A
0F
79
0E
6B
6D
70
0E
04
0F
1A
78
78
0E
0D
15
73
00
7A
7D
06
11
1F
7A
77
05
74
0A
00
7B
64
79
07
0A
75
02
6F
6F
76
09
6B
74
7E
79
77
0C
06
7F
6B
7F
0D
05
6F
7D
73
07
03
73
7F
06
0A
7D
14
0C
7D
68
7D
10
79
6D
18
7F
04
15
71
76
7B
0D
6A
08
0F
00
6B
0B
71
70
72
7D
6D
05
1C
0D
77
11
10
7C
75
6D
07
77
75
04
16
07
18
74
7A
10
67
72
02
06
07
13
0F
79
02
69
6D
6F
79
01
72
03
0A
09
07
09
78
77
0A
08
0A
13
78
07
7B
15
13
74
19
7A
15
76
7D
6E
76
73
77
15
00
79
72
0B
07
0A
65
01
7E
14
09
02
03
0E
10
04
7B
7C
72
01
73
7B
0D
0C
7C
00
7A
7C
0A
7D
6F
72
13
73
76
7A
71
0B
06
11
0A
6B
7B
14
04
05
0F
09
02
13
03
13
74
6C
7C
01
06
6A
78
75
02
0C
13
7A
07
06
7A
76
7E
79
79
74
75
70
77
0E
72
76
07
14
0C
6B
75
75
09
04
6D
0D
7E
79
7A
71
7F
05
05
04
7B
0A
7F
16
0E
03
15
6E
13
7F
7A
08
08
0C
11
7F
77
0D
12
01
10
7E
77
6A
67
6B
03
0E
6A
78
76
0F
7C
6E
6A
0A
6C
08
02
7D
0E
7E
08
08
01
78
10
0F
0D
77
08
6E
73
71
05
12
0C
73
6D
78
6C
00
73
6D
02
0A
03
0C
09
00
72
0D
6C
73
0E
03
0C
04
79
14
6A
6C
0C
04
08
0D
0C
69
04
72
06
6C
7C
0F
01
0D
77
04
15
6A
7F
79
0E
78
7D
0D
03
06
7B
08
11
07
7D
70
09
05
06
03
0C
70
00
14
00
6E
6D
0D
69
7E
72
6F
07
7F
6C
03
0D
0B
00
79
04
7A
04
6C
74
71
09
74
76
7C
12
6F
65
11
69
6E
09
69
7C
7A
0E
12
0B
75
6B
11
74
01
0A
76
7E
09
04
04
06
68
72
03
09
74
0E
7F
7A
10
76
76
0F
0A
05
7A
10
7B
07
0E
14
06
00
73
6D
02
7C
7F
76
79
00
7E
75
71
72
0B
7A
76
06
6B
12
07
0C
00
7A
00
77
07
7A
6A
13
05
6C
0C
0F
16
70
73
05
15
10
71
70
0C
74
04
6D
13
0B
00
02
7C
71
7B
76
7A
13
18
7E
78
01
7C
7F
71
6E
15
72
0E
10
0F
01
7A
04
00
11
12
14
0B
10
6E
7F
6F
05
79
78
72
0A
03
10
01
75
10
07
6D
06
6A
00
79
6E
10
6E
0B
0C
7E
1E
78
77
10
09
08
01
03
78
78
08
09
05
13
7B
0D
76
75
0F
7A
05
6C
0C
16
6D
0D
76
19
73
02
6A
71
08
12
72
6A
0E
07
77
7F
03
0C
0C
04
6D
71
0D
72
6E
65
0A
7C
7C
09
7C
73
6D
7B
17
6C
7E
05
77
11
15
11
11
7C
08
11
01
07
7A
6C
6C
7A
04
02
79
0C
0E
13
69
09
6A
75
0D
08
7F
79
04
75
6E
06
70
75
7A
7C
6B
12
7E
7E
72
05
0A
6C
7A
79
7F
75
0C
7C
02
7A
6F
0B
74
09
77
17
09
7A
74
70
6E
6F
7F
05
10
7E
03
73
75
72
10
0F
03
05
6B
72
7C
77
79
11
6D
17
6E
7C
0A
0C
08
71
78
72
7D
6F
07
0B
00
73
09
76
07
04
6E
02
74
7C
74
7A
10
7A
72
0E
6B
7A
77
7D
76
7D
79
7F
0B
74
7F
7C
0F
6E
7B
74
10
75
6F
0B
7A
0E
02
76
79
04
02
09
78
7C
11
15
19
6E
03
12
73
7F
72
16
06
7E
73
03
70
76
07
0D
01
12
00
06
71
6C
7F
6C
05
08
04
00
74
7C
78
74
6E
70
03
06
6C
76
77
0C
76
78
7E
6A
14
01
12
72
09
71
00
71
78
0B
00
79
6C
04
10
0C
7F
74
7F
74
11
11
6E
14
77
79
0B
77
72
79
09
7F
0E
72
79
73
79
70
6E
72
13
0C
73
7C
08
06
73
72
74
7F
7F
6B
78
79
11
10
09
7D
76
14
09
74
74
08
6F
07
03
09
09
00
0E
77
0E
08
0B
72
01
05
0C
71
7D
10
75
07
6E
71
08
71
6E
0F
11
66
0C
04
7B
01
0B
0D
7A
7E
7B
14
7B
6E
0A
6D
14
14
0A
10
7D
70
13
6E
7E
7D
7D
78
6E
12
07
71
09
74
05
75
7A
71
08
0C
06
0C
6D
6D
09
1A
13
7B
7C
6B
0D
08
70
12
02
04
7E
77
07
0C
7C
6F
74
01
7B
02
15
77
6D
05
10
71
6E
79
08
78
69
78
04
0A
0C
0C
11
67
02
0B
15
17
22
00
7B
08
06
76
6B
0D
7D
0A
7E
10
7D
68
69
7C
03
73
66
6E
64
11
04
0F
6F
71
00
7E
06
70
75
04
77
0C
0B
73
7F
02
74
77
7F
7A
0E
12
0B
0D
74
0B
7A
05
79
18
10
01
6F
07
75
04
0C
08
0D
7F
0B
78
6E
10
6E
7E
0F
07
17
0C
77
1D
0F
78
05
7E
76
7C
7B
06
02
08
76
74
74
7E
0D
09
6F
7D
76
76
08
09
07
02
05
7F
72
0A
0A
01
74
06
77
06
7F
00
00
6D
08
06
6A
01
02
6B
7E
79
11
73
76
6F
71
7B
0F
04
03
6D
7E
1D
09
69
6A
6A
14
01
71
7B
01
6E
76
09
70
79
11
6D
0E
77
15
71
10
7E
7E
72
05
7E
73
74
12
6D
6D
0E
0D
04
0D
7B
71
02
70
7D
11
07
70
74
7F
6A
04
02
7A
13
10
78
13
06
02
78
7B
0A
68
6C
6C
08
11
13
6D
00
73
76
0B
0D
08
04
78
7E
0A
13
12
6A
12
1B
7E
09
6B
75
10
07
77
7A
00
6B
76
74
03
12
77
60
72
14
7E
7C
13
7B
72
05
0B
13
0A
7F
0D
71
08
78
72
0E
0C
02
06
0E
12
7B
0D
10
6F
08
0D
0C
06
6D
7E
70
0A
08
7F
7D
00
7F
02
75
0F
6C
0E
7E
6C
06
0A
79
6D
7F
11
7D
0F
0C
01
03
11
0E
07
01
71
08
7B
6F
6F
7A
00
07
74
0C
00
6A
74
70
03
02
09
12
76
10
6B
79
09
6A
77
0B
69
6A
01
76
76
07
70
13
03
71
0F
6A
6B
0A
09
76
7D
7E
11
12
0A
74
7D
7B
7B
73
09
6E
79
72
14
79
70
78
7D
0D
7B
12
6A
6C
0D
78
74
74
08
7E
6A
7E
74
00
08
7A
05
08
6E
05
7B
71
0F
77
75
76
16
6E
7D
6A
05
01
0D
7F
0C
07
0E
6F
09
0E
7E
71
04
70
05
0B
13
78
70
6C
75
7A
00
07
72
01
08
7B
0B
03
6A
7C
0D
7D
70
74
0F
00
07
05
6A
02
12
7E
74
6E
7E
71
6E
7D
10
69
79
01
06
06
6E
6B
0E
76
0E
0A
6C
6E
7D
78
0A
0A
0D
05
07
07
74
11
0C
13
15
71
7F
6E
10
10
79
6C
0B
04
78
7A
6D
7A
0C
77
0D
6E
11
78
08
7F
7D
72
76
10
6E
04
0E
07
70
75
76
06
7E
71
0C
0E
76
6C
12
0B
75
7E
6D
75
09
6F
79
6D
13
13
71
13
6E
02
76
0A
08
0A
0C
6E
6D
77
6E
7C
12
10
0C
79
04
6D
7C
0B
6D
0D
7C
0D
73
02
09
71
7C
07
76
71
13
75
00
6A
0B
04
0E
6A
7F
0D
6A
0C
02
6D
7C
0D
74
7F
6B
11
6B
02
74
79
6C
12
6A
6F
0C
12
07
07
11
08
11
05
7C
13
01
04
76
16
05
01
7E
76
6C
05
6E
6D
69
01
0D
6E
74
7D
73
71
0F
0B
77
0C
09
73
01
7F
05
02
6D
69
01
7E
6D
04
11
76
14
6B
0C
00
6F
76
03
6B
6C
70
7E
7C
10
00
7C
7D
79
06
75
0B
7F
05
04
11
0F
13
7E
7A
79
02
7E
18
09
0D
15
0C
76
12
75
69
6A
09
02
0F
71
7B
01
6A
7F
6E
7B
6E
11
11
03
03
05
06
7B
7D
6F
7C
0F
72
71
0E
7C
77
14
11
04
15
05
0E
70
67
13
08
12
03
09
6B
6C
6E
11
0B
69
75
01
7D
0B
13
70
78
14
6F
76
79
73
76
71
0C
7F
0D
14
06
01
75
0C
02
7D
14
05
69
05
72
72
0F
73
0D
71
02
7C
0E
72
7D
13
72
08
0B
79
77
73
79
7B
05
72
72
10
72
08
02
0A
6E
0B
79
06
0A
06
02
0E
0F
75
0D
6F
7F
13
11
0E
7D
18
03
73
15
05
11
03
6F
12
74
7E
0E
77
73
0F
10
70
09
03
76
68
08
10
7A
7E
6E
06
13
78
18
06
7A
07
7B
03
05
15
78
05
74
7C
79
6A
10
0C
19
17
08
70
77
77
6F
00
6C
08
6F
10
13
7F
74
7E
75
0E
78
76
72
0C
08
06
0E
6D
0E
0D
0B
73
00
01
71
0B
07
6E
04
72
7E
13
78
0E
0A
0E
6C
6C
77
78
03
00
0B
73
00
72
60
7D
74
0F
12
0A
09
02
75
12
0E
6B
76
11
70
6B
6B
71
08
13
6C
1D
00
6E
0D
70
08
05
04
6F
10
78
06
0F
0B
12
71
11
11
7A
79
01
7F
12
78
08
0A
70
73
7C
71
71
19
7B
05
7C
78
6B
6E
7A
0C
01
04
0C
78
7C
6E
7A
00
02
74
67
03
77
74
75
0F
73
0F
6F
70
64
0F
0C
00
71
0F
7B
73
08
70
6C
71
03
10
72
0F
6B
04
7A
68
18
6C
0E
70
03
06
0E
73
03
11
06
75
74
74
7A
71
02
0A
78
13
78
6C
0E
10
09
12
76
11
02
72
7A
09
75
08
6D
17
15
6F
7D
10
0D
78
7F
04
6A
6F
71
13
6A
03
78
73
0E
68
0F
01
0B
0C
79
0A
76
0C
79
79
0E
0D
79
0B
09
77
06
0C
0A
14
12
08
7D
0A
18
7A
6F
04
13
6B
08
10
72
03
71
05
01
7B
7E
77
6B
00
06
06
00
6A
04
15
6B
6B
7D
73
6E
7F
09
6A
03
02
77
73
10
18
7D
01
71
6E
0B
03
08
0C
0D
71
06
04
11
75
71
01
6F
07
7E
13
11
77
7C
08
10
76
6E
6E
14
7A
6F
09
7B
6D
09
06
09
73
70
08
10
7E
09
09
12
65
6F
11
00
16
75
77
02
04
71
7D
03
7B
74
12
13
6F
73
0B
7A
01
09
70
0C
03
04
09
6D
0B
7B
02
14
78
05
76
78
0E
17
76
67
7E
09
7F
0B
11
00
0F
0C
7B
10
7C
08
6A
7F
79
0D
11
78
01
6D
7F
75
70
02
71
77
6B
7E
68
7F
7F
00
73
70
73
7B
7C
1A
07
08
6E
6C
79
0D
04
00
11
71
77
16
00
79
06
10
13
19
14
73
74
03
0F
0D
07
04
70
76
05
0E
73
02
03
15
7B
07
01
71
0D
7B
6E
73
0A
01
7E
0C
72
72
08
75
03
6C
05
70
68
7C
12
08
06
7C
79
7B
76
0B
78
72
70
09
79
14
01
06
7A
0F
07
05
6B
7C
7D
0D
6F
74
71
08
73
00
06
14
6A
6C
12
7E
72
0B
06
11
0E
00
13
14
04
75
12
7C
6F
0C
0D
12
0F
0A
77
6B
69
16
02
6C
7C
07
0E
7A
6C
10
0C
74
08
74
6D
69
06
69
7C
79
07
7B
71
6D
6F
09
6B
7B
73
6D
0A
07
78
74
79
03
6A
71
05
7E
00
77
0C
0A
7C
04
08
08
7B
12
76
00
72
06
7A
74
6E
0F
77
6C
09
09
06
7C
11
15
0D
10
12
09
71
74
12
08
02
7F
75
0B
75
7B
13
11
7D
6A
0A
10
6C
13
09
0B
02
6A
0D
06
13
09
71
77
71
10
73
70
08
7B
0C
79
74
07
06
76
07
6C
7D
0A
0E
0A
08
72
0F
7B
0C
16
12
11
0D
6D
78
78
05
78
6F
09
6E
0F
0A
7E
70
7C
0C
72
71
7C
12
6F
07
70
05
0B
0C
01
6A
0E
6B
7F
7D
7E
04
04
03
04
6E
09
0B
05
0A
00
7B
7E
08
12
75
73
0C
0C
6F
0B
08
12
6C
74
00
74
73
12
00
10
0C
04
7F
1F
77
0A
07
76
01
79
6F
75
0A
04
77
7E
6B
7F
06
78
12
6D
7F
66
78
72
11
6C
0F
03
02
02
7E
78
7B
6F
76
69
08
09
06
70
75
0E
0F
75
6D
0C
74
71
0A
78
01
11
05
08
10
78
7B
7D
03
09
75
7F
6D
03
18
07
6F
6F
74
7D
6C
11
03
67
76
0A
05
71
78
0C
75
7B
76
79
0E
02
7B
04
04
03
0C
03
12
7F
03
08
05
0D
11
63
05
5E
0C
12
0B
0A
7D
6B
7F
07
7F
6A
6D
6E
6A
6A
6E
68
68
0A
6E
12
06
7D
01
7F
7A
00
7F
7D
7B
0B
11
03
0A
0A
0C
09
76
00
75
18
06
7D
10
6F
01
7E
76
0E
03
7B
6D
05
0A
6D
6F
06
71
15
0C
03
10
03
1E
02
03
7A
71
11
78
0D
79
79
0E
70
0E
73
08
79
6A
66
7E
0C
0A
03
77
01
11
02
0D
74
6B
70
72
7F
72
5E
02
7B
76
7E
0C
75
77
0C
01
73
0C
02
79
0E
03
79
7F
7D
70
7B
01
0F
0B
1E
03
6B
16
07
75
73
7E
01
0F
03
05
7B
23
0B
6D
0E
74
7E
00
06
05
10
1C
0D
04
75
7D
77
75
71
16
7A
0C
19
0F
70
0E
6A
6F
77
0A
0A
7A
6F
01
7F
6B
72
72
79
15
73
11
09
76
7C
7A
75
6C
06
0E
78
7F
00
69
12
04
09
78
19
0B
78
0C
6F
09
11
01
0D
7F
13
7C
6D
02
00
07
74
0F
73
01
11
6B
0B
09
75
09
6A
7F
0A
14
02
72
7D
15
14
7D
0C
7C
09
78
00
05
04
0B
05
6D
71
11
6B
6B
73
11
07
76
71
13
08
69
6B
15
79
7B
7D
71
76
0D
6C
7C
00
6D
0B
73
71
70
78
0B
76
7E
75
76
78
70
7B
69
6D
0A
14
04
17
78
6E
78
0D
03
06
12
03
14
7F
06
7F
02
7F
7A
0C
15
7C
12
09
00
02
72
01
75
6C
0C
02
00
76
03
6C
77
73
72
0F
75
77
01
12
6B
7C
68
6D
05
02
0A
78
7E
6C
12
7D
0D
06
72
0E
0E
7D
7A
13
0A
00
0A
7F
12
75
7C
7A
6F
77
08
76
6F
7B
6A
71
16
7A
0A
02
06
73
02
03
0F
04
09
01
04
10
70
7F
71
14
70
73
05
7B
72
07
13
6E
05
76
01
6D
0A
03
10
70
06
72
03
18
6B
75
7B
05
7F
07
02
7D
0A
10
0E
01
6C
04
7F
7F
75
75
79
0F
6D
71
04
03
00
03
73
75
13
6D
02
6E
11
0E
7E
7A
76
0B
7C
77
09
04
7D
07
09
15
00
00
13
11
7A
0C
6B
62
0A
74
70
6B
78
00
71
6D
7B
70
0B
12
7F
6F
6D
71
00
14
10
05
13
0E
69
7A
08
79
7B
0E
05
09
03
78
7B
79
72
73
79
09
7E
06
0D
72
6F
7D
75
7F
75
79
77
08
16
0E
7D
74
76
0F
0D
6A
07
0B
7D
6E
00
10
08
7A
75
07
1C
73
71
74
74
7F
0F
77
1C
6F
7A
05
0F
08
6F
0E
75
73
0A
10
07
6C
01
13
78
0F
77
7B
11
0F
18
05
01
01
00
72
79
02
10
0F
7A
7B
7B
10
71
10
0D
07
0B
01
7E
7B
6F
02
7C
70
7D
15
74
6A
77
0F
07
15
11
6F
6F
7E
14
05
7E
06
7A
15
70
08
09
12
7B
72
1C
73
05
04
72
0B
78
0A
78
71
75
70
0F
0F
7D
12
6F
11
71
7B
73
02
09
12
77
7A
70
70
78
6B
17
12
08
79
6D
7F
73
14
11
03
04
0E
02
6E
7D
69
6E
72
0A
01
0B
0A
0A
6C
11
0A
04
0D
6E
07
70
05
76
04
77
12
11
79
74
04
6C
07
01
07
6D
73
7C
74
0B
6A
17
7C
70
01
0E
6C
7C
0F
7F
79
0A
66
78
6B
08
05
0A
7A
13
13
04
07
70
6F
0D
7E
08
78
02
7D
7E
0E
7D
7D
13
7D
03
11
05
0E
70
74
78
7B
05
7A
7E
0E
72
0C
76
09
0F
75
70
11
6D
02
7D
74
75
75
05
7B
13
09
75
6B
02
0A
09
7A
0C
6C
11
6D
6B
15
01
6E
7B
0E
74
0D
0E
79
0A
6E
17
7E
12
6F
12
7E
0F
77
08
03
6B
13
13
02
0F
6D
09
6A
06
0C
6F
13
08
03
6F
7E
0C
11
0A
6C
6F
6C
76
6B
0D
77
7F
15
6A
0C
10
12
7D
6D
02
04
7F
7C
73
6F
7D
10
71
19
0C
0B
6D
01
0B
13
7B
74
77
0A
76
7C
6B
76
10
00
7B
71
0A
13
14
0F
6B
07
10
70
03
76
6F
12
7B
78
71
06
01
0B
75
6F
0F
0C
7E
06
09
0F
0E
12
7C
7D
6F
07
6B
71
72
6B
09
00
07
0F
75
0E
78
78
7A
13
6C
04
7A
03
7F
0D
6E
10
6C
12
12
7A
12
12
12
17
09
7E
7B
00
7B
7C
6F
00
00
6F
6F
7F
00
08
6A
04
7C
7C
7B
06
7A
7B
6D
6B
6B
6E
73
6D
75
05
12
6E
77
7F
7E
77
67
7A
02
0C
03
6F
0C
13
01
11
78
6D
7E
7C
0F
78
75
7D
74
13
05
0C
6C
0C
00
77
6A
04
75
0E
0C
0E
14
7D
6C
72
0E
6D
78
74
0D
05
01
6F
10
77
73
6E
71
6E
74
69
7A
0F
04
7B
09
11
11
18
01
13
7F
79
09
0E
0F
75
71
70
11
6D
11
0F
0F
0D
06
0B
6C
10
7E
7E
6D
7B
07
10
03
18
14
7D
15
0F
09
7C
6C
00
0F
00
78
17
65
7B
08
76
7A
61
6C
69
1C
72
7F
70
12
6C
05
79
11
6B
7A
07
02
05
6E
7D
71
0B
77
6B
73
6F
7C
0B
12
7B
6F
79
05
06
79
6C
03
0A
01
0E
12
0E
75
0A
7B
10
01
7B
09
7F
62
7B
00
7D
0F
09
11
7C
6E
0F
01
6E
0A
7D
09
02
23
0F
7D
79
11
06
04
70
0D
0B
77
03
7F
73
07
04
6A
69
15
0E
0E
7E
14
6F
7B
15
6C
05
72
78
73
03
0F
06
00
11
7A
0D
71
6A
72
0B
09
0F
04
0B
07
21
7D
0B
6C
6E
00
14
7D
78
06
03
0D
6C
77
69
7E
06
64
69
6F
14
11
7C
20
13
06
7B
79
7F
7C
08
10
08
0B
08
6D
6E
07
79
17
0E
0D
13
00
75
7D
0A
0E
12
0D
02
05
0B
07
7D
12
7D
03
11
0B
7A
06
09
6B
71
05
78
7C
7D
73
6E
0C
75
10
07
7E
0B
0C
6E
0E
77
01
05
09
0C
71
79
09
15
7E
7D
0F
14
72
72
77
7D
04
01
13
74
6F
14
0A
0B
7E
08
7D
10
75
71
7E
77
7A
0B
70
0F
0D
6D
02
06
0F
0E
76
6A
6C
09
79
70
11
71
7B
09
09
71
0F
6C
6C
08
7A
15
01
04
0C
03
76
06
05
6A
76
05
7E
6E
71
0D
0A
76
09
05
71
0C
70
69
0D
13
10
72
6D
04
6B
01
09
7F
6D
6A
7F
06
0A
77
7C
75
6E
70
0A
74
0C
0E
05
0D
76
03
6B
10
79
7A
7D
78
70
76
07
76
7F
6A
0E
78
71
12
6C
7A
72
6D
02
77
09
71
70
15
6E
10
7C
76
6D
7F
0A
7C
06
7B
7E
7C
02
08
04
12
6E
78
6A
6D
6C
75
76
07
79
75
7A
04
06
79
77
77
04
02
6D
7F
6A
03
73
15
0F
76
0D
06
6E
6E
11
7B
75
77
0C
03
7A
0D
7E
05
72
77
03
75
01
7B
06
70
76
71
6D
06
7D
0B
03
71
6B
69
0B
70
79
78
06
76
6C
71
73
0C
00
13
71
05
02
7E
79
6D
7C
6D
7B
0D
12
76
7E
02
6B
14
08
7F
76
06
08
01
69
7E
09
0F
15
0E
7F
06
6A
7C
69
00
6B
0E
0E
76
71
08
03
11
69
07
7A
77
7D
7A
7B
73
11
72
77
73
03
75
7F
7F
07
09
6A
79
07
11
7B
05
7D
71
08
0F
6D
0D
7A
6F
75
09
6C
0C
06
72
09
12
09
7E
78
07
76
14
0C
0C
00
0F
6A
73
13
7D
7B
11
19
0F
00
13
06
6E
7C
16
7F
08
7A
6F
7A
77
74
10
00
04
11
19
0F
11
7A
78
6E
71
7F
7F
71
0B
6F
7F
7B
06
13
6C
03
0F
78
01
18
7E
0C
04
11
72
6F
7C
0F
0A
73
09
05
7B
7A
72
0E
6E
77
7D
0C
71
0C
03
77
04
12
74
6C
6C
0D
79
72
09
0B
73
0D
07
6E
18
07
07
12
6F
70
75
6F
76
6B
7E
03
07
6A
0A
69
09
73
7A
13
14
10
7C
0C
72
6A
02
6D
07
10
72
10
05
79
78
00
70
7C
06
70
69
78
06
73
12
0C
0C
72
02
03
03
7B
08
79
11
78
0C
7A
07
10
74
11
78
08
11
13
14
0B
09
6A
6E
6E
13
74
04
7F
7E
10
0A
76
10
77
76
0D
13
0E
6C
05
69
03
07
11
6E
14
12
6E
00
7A
08
09
01
70
6E
02
6E
1C
76
0D
70
66
08
0B
7B
63
72
75
79
08
05
73
11
6A
7C
1A
7C
6D
05
7A
0D
0A
7A
6A
76
10
70
79
0F
6D
7F
6E
08
6D
6B
0B
7D
7D
14
11
7B
78
6B
0B
6A
71
00
06
7D
0E
7F
6A
08
0D
70
00
6C
08
6E
0B
6A
01
67
7E
6D
15
75
78
17
7D
12
78
72
06
1A
7D
04
7C
01
09
78
61
73
07
72
6D
76
76
0E
79
7F
1F
0E
66
6E
6C
0A
73
71
02
0D
02
0C
7F
05
10
71
11
01
07
14
73
7C
13
7D
04
6F
74
0A
03
06
75
13
6F
7B
02
76
7E
02
14
03
6B
7F
6E
10
01
6C
04
76
79
15
7A
74
76
01
73
10
6F
12
77
78
04
7B
00
1E
61
7B
13
74
6D
12
06
02
04
6D
7C
79
77
74
0C
09
7C
0D
6E
7B
0B
0F
7A
05
09
7F
7B
79
7B
6D
74
6F
06
74
0C
02
78
18
71
6C
6B
13
6D
15
05
74
7E
01
07
0E
09
7A
7D
78
05
01
11
09
6B
7A
6C
12
79
06
76
79
02
7F
74
0C
77
07
76
6C
17
72
01
02
13
7C
06
6F
05
6A
11
7B
7B
71
6D
75
79
7D
73
0F
13
71
71
7D
0E
7C
13
7C
78
06
7E
76
7D
10
02
7E
77
0C
76
0D
6E
6D
14
6D
0D
7D
0E
13
0A
75
01
70
70
7A
6B
02
0C
12
0F
77
01
13
70
0F
08
1B
72
11
06
02
06
7D
04
74
75
0B
19
77
7E
03
18
6E
6B
08
6E
6F
75
78
0C
02
73
7B
17
05
71
72
6A
7E
11
79
0F
6B
75
0D
73
02
76
10
74
07
0A
7A
6C
08
01
78
6E
78
75
16
7B
6F
13
06
77
71
7F
12
01
05
01
79
11
78
0E
03
07
7F
71
72
71
6B
7B
09
66
11
72
7D
7A
0E
05
07
70
7A
11
71
7B
08
13
7B
7D
76
04
74
79
0F
7A
78
78
7B
7D
04
74
6B
6E
70
7B
7D
7B
12
7B
11
07
6E
6C
02
15
74
7F
00
77
19
72
0D
75
11
6C
01
08
7E
03
72
0F
7D
0D
0D
7D
09
03
0B
15
00
03
14
11
73
74
6A
77
7C
79
03
6E
75
7D
16
0E
7A
0E
78
02
18
0D
75
6C
7C
7E
11
72
0A
09
7C
75
6A
6D
0D
06
6B
17
06
6B
74
15
73
6F
6B
04
07
06
76
7F
11
7B
75
0A
7E
7B
17
73
7C
07
05
11
7C
07
04
09
15
75
03
02
71
09
02
79
14
79
6C
7A
0D
0C
0E
04
7D
6C
07
0D
03
75
07
6D
6F
6D
77
7E
7B
6E
6F
78
7C
7E
1A
6C
75
09
79
7B
09
72
6E
00
78
09
75
7A
15
74
7D
06
10
0D
6C
70
7C
08
7D
7C
02
08
7A
72
7F
10
05
10
15
78
71
0D
14
09
07
71
0C
6F
0C
00
76
0C
07
78
03
71
0F
7A
7D
71
7E
00
68
79
06
07
10
13
6D
77
0F
01
0B
6E
7F
76
7C
00
71
12
00
79
71
0A
6E
13
77
0A
12
7F
7F
0C
07
7A
6F
0C
04
6A
11
06
70
7B
73
73
0B
7C
04
05
77
06
74
0F
6B
07
7C
0B
13
76
01
71
06
09
0A
74
65
12
5F
70
6E
70
7E
74
13
76
7E
0D
7D
6F
6F
0C
69
73
0C
7D
09
6E
6B
13
0C
7A
11
79
19
6E
78
00
7D
7D
00
08
77
6C
7F
0A
75
03
7A
10
73
00
06
6D
79
7A
7D
7F
17
77
68
01
08
00
12
05
7B
01
01
6F
7E
0C
03
75
77
04
73
6E
01
0E
10
73
76
7F
0B
7A
6A
69
00
06
72
79
7D
7C
6B
03
0C
01
73
14
09
71
01
0F
64
04
04
72
0A
78
0B
72
08
77
78
6B
7F
78
09
71
00
0B
06
04
77
0D
00
70
7E
00
79
16
76
71
04
69
13
73
0C
02
73
22
72
64
77
78
6E
19
22
07
14
03
7F
7A
70
08
6A
02
7A
0E
18
0D
0C
7B
13
76
6E
7A
7C
11
71
72
6E
6D
08
76
7F
7E
73
71
71
7E
7E
7D
6E
07
01
6D
76
74
08
14
0A
6F
1E
04
11
70
19
7A
07
7A
01
7D
7E
75
74
7E
18
06
0D
19
10
7D
07
7F
0C
02
78
78
71
05
72
75
6D
01
6B
79
22
07
6D
03
71
0A
10
05
7A
0D
7D
7B
11
79
06
03
06
73
62
01
05
7B
6B
06
13
74
14
7B
70
71
70
76
79
7F
6E
70
6C
6B
6B
7D
72
76
03
14
6B
0E
18
0A
7B
6D
13
71
13
7A
04
01
01
6A
72
04
79
00
07
0C
71
70
00
77
7C
0D
14
78
72
7D
11
00
0D
6A
7C
7E
06
6F
0F
17
70
15
75
6C
79
6F
00
1B
06
0B
0F
03
0F
7D
61
0A
70
7C
6D
6C
7E
6E
72
0F
04
10
7E
76
7A
7B
75
0E
62
03
0E
69
6F
10
10
76
0F
71
16
08
00
77
78
7F
0C
7E
71
69
07
74
78
7D
18
6F
79
14
76
08
73
6E
02
10
7A
07
78
15
11
77
07
0D
02
7C
7C
75
77
03
07
6E
77
71
7F
6A
79
05
78
6A
78
14
6E
08
6B
71
6B
6F
7C
7A
05
0A
74
02
6E
01
71
79
6C
0A
11
6C
79
7F
09
78
01
6E
11
0F
10
0D
7E
74
0C
03
0A
0A
0B
00
03
16
05
0B
6E
7B
7F
10
0D
7E
0D
70
02
0D
02
11
16
72
6A
19
7B
75
13
72
6C
0B
11
6C
74
06
7B
71
78
08
07
0A
08
7B
18
7E
72
0E
75
74
01
6D
05
6D
0B
06
10
74
11
78
71
09
7C
6F
7F
0B
76
05
7F
77
0B
7B
03
6E
6C
79
12
7F
6B
7E
00
05
6D
77
06
7A
7F
01
0D
0E
1A
0E
12
7E
15
7E
7B
6E
77
14
07
6D
7C
00
03
76
09
0E
00
05
0C
0F
7D
6E
7B
6F
6A
7D
72
75
7A
7C
74
6D
17
7A
7B
7F
6C
6C
74
74
01
68
0D
14
76
75
72
0C
6E
6B
7A
75
78
7D
77
7E
00
05
7E
13
74
79
7F
04
6B
74
7D
0C
14
07
7A
10
15
7F
0E
71
12
07
13
78
07
69
05
16
05
07
7C
0D
7C
7D
11
6B
6C
06
6E
0A
00
79
02
19
02
74
75
12
06
07
6E
04
7C
7D
05
75
72
7A
18
73
71
10
76
06
05
72
09
72
7B
04
7C
6E
6F
7A
02
01
15
02
02
14
7D
6D
6E
6A
07
05
72
0C
09
01
12
6A
0B
7F
07
6F
78
77
0E
14
0A
14
16
70
76
6E
07
79
07
0E
75
11
04
7F
6E
77
07
03
78
75
04
74
72
14
75
10
0A
6C
01
7F
75
04
7B
11
12
14
13
72
15
01
78
12
0C
78
01
7E
73
08
0B
70
72
6B
12
06
7D
7F
74
6E
6B
6B
70
76
05
6E
09
78
78
11
69
7F
77
6C
7D
0E
7F
6D
13
05
0F
10
09
02
0D
03
76
07
7C
7A
7B
6C
05
11
69
0E
06
0F
0C
0D
05
0F
6E
0B
14
6E
10
04
06
05
0A
7C
7E
07
71
7F
01
70
06
74
7B
6E
0A
08
16
0B
7D
03
6D
08
72
16
7E
6A
7A
70
76
6E
77
0C
0D
77
71
06
01
09
7F
11
79
0B
6B
79
7D
7C
09
76
7E
0D
73
05
00
01
74
0A
05
03
10
10
6F
78
73
6C
6D
02
77
6B
7A
02
13
03
73
0F
05
12
6F
7B
00
11
73
7B
14
09
6A
7A
76
01
07
72
6E
12
71
0B
11
7F
70
7A
12
0D
6B
73
14
13
0B
0E
6E
7F
10
0D
78
10
08
74
77
73
72
69
0F
09
7C
6B
76
75
12
0F
7C
76
71
6C
0F
06
07
6F
77
7E
73
13
79
72
0A
72
76
01
7E
03
7F
12
0D
77
0D
01
7D
04
7C
7A
13
71
6C
74
75
01
0D
11
71
13
7C
6F
69
6D
76
0E
15
06
0F
12
08
7B
13
7C
05
09
03
02
10
07
74
76
0A
00
7B
06
0B
6B
07
75
73
77
0A
7E
06
01
09
6B
79
6D
14
76
06
0E
08
73
7C
7F
02
78
78
77
06
7D
7C
7C
02
75
7A
70
01
79
73
73
76
07
13
7A
00
76
78
05
0D
76
7B
04
0D
7A
73
03
72
10
03
72
74
76
12
08
08
6A
14
73
0E
7A
0C
04
78
15
0A
7E
0C
0F
04
71
79
00
78
6C
79
02
00
0C
6E
6D
0B
10
73
11
76
7F
0B
6D
6E
7F
74
0A
71
18
10
00
01
6C
10
09
6D
74
0F
0B
11
07
10
08
03
10
79
71
11
08
6F
06
14
73
0B
6E
7D
09
0F
0B
73
7B
6D
15
69
00
7E
0C
08
7F
04
7B
13
6A
01
6A
00
09
78
7D
13
6F
00
79
71
72
0A
7B
6A
7D
74
08
07
75
70
78
79
7A
0B
6E
10
02
75
7D
6D
13
19
7A
10
0A
15
76
10
78
79
7E
79
00
0C
05
0A
02
6C
00
7F
7C
16
0B
7B
09
73
71
77
6A
1A
72
6F
1E
79
01
0E
05
02
03
79
13
0C
72
73
0F
7E
00
0C
07
73
7A
0B
75
7A
11
10
6E
7B
72
02
06
08
74
02
07
76
0A
78
00
03
0D
08
70
0A
03
15
74
73
69
76
0E
78
09
7E
6E
0C
77
15
71
14
0E
14
70
6E
0D
7D
7A
75
6A
74
0E
0E
78
7C
65
04
13
6C
0E
7E
6D
07
7A
76
08
75
74
7F
1C
01
0E
7D
00
09
75
70
0C
08
11
70
7E
08
0B
7A
01
72
71
7B
03
73
6D
14
0A
73
7A
6C
03
03
6A
0C
02
09
06
6B
7D
1E
0E
0E
04
1B
06
76
7E
0C
7E
7E
0F
6E
08
1E
7F
0C
75
0C
0D
18
00
7A
04
77
11
16
08
06
12
0A
0F
14
05
00
03
71
09
6D
08
03
0B
6D
03
12
6E
10
04
6A
02
0B
6F
7D
76
7F
7C
0F
0B
77
7A
08
02
70
10
7A
72
0C
7E
76
6D
7F
74
71
0A
06
0A
07
12
07
6B
7D
