37
1D
1A
DF
29
DD
26
FC
36
03
CE
F3
ED
2F
28
1B
DD
E7
D7
1C
D8
F8
D9
28
C7
1F
FD
CC
10
07
D6
DC
15
FA
F4
34
21
C1
C1
E2
EE
2C
27
E6
CC
D3
04
3A
07
E7
F2
1F
09
24
D7
46
CE
31
0E
0D
E1
DC
08
D2
26
34
FA
E1
CA
35
CC
D0
FE
12
2D
CE
DD
2C
F5
21
C2
24
F3
C9
28
FA
32
D0
21
D0
C9
F8
31
11
FB
EB
CA
19
00
F9
DD
F6
0D
2F
EF
04
26
E9
26
F1
FB
CB
EE
CD
02
22
1B
CA
37
E3
E3
0B
03
FD
E2
F3
01
D2
ED
1C
18
22
DA
24
C5
F1
31
38
0B
29
0C
2D
05
37
CC
D5
D2
E5
FA
23
F7
12
EC
DF
10
0F
E2
D3
24
01
DF
0D
C5
1D
15
E2
EA
EA
C4
F1
29
36
1F
C7
EF
DD
B5
43
E6
11
4B
CC
E2
BF
EE
15
13
D0
18
08
47
45
0A
E1
35
24
E7
ED
19
33
35
CF
C7
ED
47
E8
11
DD
07
EC
C9
E7
40
18
DF
BD
DC
D5
D2
0C
1D
F2
2E
1D
39
E0
C6
CA
F7
F2
2B
C8
1F
18
DC
25
E3
E8
10
1E
E8
0B
28
36
D0
1E
DC
03
21
34
D2
02
2B
F5
16
39
E4
38
0C
CD
0A
EB
38
2E
CC
01
2F
FF
C9
20
0C
28
F0
F5
38
00
39
C5
06
DB
22
D3
DD
20
EF
07
0F
F2
11
2B
05
E6
25
12
0B
2F
F9
12
2F
39
02
E0
CC
01
D7
B8
1B
04
0E
EF
1D
06
D0
F6
02
14
DB
20
38
32
17
2E
CA
2A
E7
F1
29
23
C8
E4
D4
01
1A
06
01
F0
E6
DF
E2
FC
FA
DE
FA
CD
D4
07
E9
FD
1A
33
04
E4
10
DD
DB
E3
FC
36
CD
24
05
09
E5
31
2A
CB
C5
33
31
16
E0
07
F0
F6
E3
36
29
D6
2C
DD
DF
C4
0A
00
25
26
C9
2C
3B
29
1A
F4
2B
F6
04
D2
CC
38
08
02
04
ED
21
F9
12
DB
FE
D7
35
3A
31
CD
2C
F9
0C
FB
CA
FD
13
25
38
FB
D1
CC
20
23
15
E1
D9
21
2D
EC
DB
1C
03
D4
DA
ED
E9
11
16
1E
EA
DA
F9
FD
01
F4
E0
0F
2B
35
24
EC
C6
10
0B
E5
E1
FD
D7
CC
E6
F7
CF
F8
19
24
06
34
E4
15
2F
F4
C8
21
D4
0F
2D
EE
39
E9
05
F5
DF
F2
2E
FF
02
D8
C7
E9
0B
18
E8
EB
34
CB
0A
D1
CB
FF
03
33
CC
D8
EB
31
D9
E7
CC
DF
C7
36
D9
FE
38
1F
D5
2D
EE
1C
0A
2F
10
CF
3B
FE
2C
ED
EC
35
D1
15
CF
2E
1A
CE
2F
2F
05
14
F4
D4
38
E9
D3
1B
CA
29
EF
35
1B
D8
01
EE
19
C6
FD
CA
F9
F3
07
06
D0
F0
17
22
2B
15
F5
1F
2A
26
0D
1B
0F
1D
E0
25
00
3B
43
2D
E2
15
0D
02
1B
E5
F4
C8
0B
F0
E5
2C
D9
D4
01
2C
CD
DE
F2
D3
29
07
32
F5
CF
10
D6
CD
35
04
E9
20
1A
15
F2
D0
25
24
DB
F0
FC
3F
F9
F3
21
06
39
3E
1A
FB
F3
2A
1A
1F
C7
30
27
F3
F8
42
E0
24
01
CD
16
1F
DA
D1
D4
E4
CC
DA
D4
17
E0
3B
1C
EB
0F
CA
F4
13
F8
3E
F0
1A
FC
EA
F4
0B
2D
05
0E
E6
CC
D4
1B
11
D3
29
25
E9
07
D3
EF
EB
35
CB
17
07
28
E0
17
1C
E1
03
18
E5
F8
F4
F0
EC
25
D2
36
E0
CB
2F
FC
1F
28
D6
CF
EC
15
D6
FA
C5
F0
DD
E3
EE
E5
F6
18
F1
17
E9
26
02
08
E2
D5
32
21
37
3A
00
C9
FF
F4
15
1A
D1
FB
EB
10
D6
C6
25
26
28
FB
22
F0
1F
FA
07
EA
14
1B
0B
32
1C
DC
D0
D3
D2
10
10
D5
CA
1F
C7
F7
CC
0F
2F
05
19
3E
DB
F0
47
1A
DD
44
04
03
12
DD
09
D4
D4
1F
CE
F1
1B
34
07
1C
16
E3
D6
E1
08
F7
E8
02
EF
D7
08
1C
CB
24
F6
00
FA
DA
DB
DA
0E
E3
DA
F9
D9
22
30
07
2D
D3
D8
D5
BA
B8
B3
0B
15
ED
00
1F
31
15
44
08
ED
03
3E
DC
F8
32
F3
F5
FA
10
E6
CE
E6
D2
0E
CD
0B
F2
E6
20
0D
30
18
3D
EE
C2
EA
24
21
F2
D7
BA
EA
19
12
16
39
F1
25
F8
10
09
B8
08
E5
C4
DE
C7
C7
2D
05
27
D5
EC
E5
CC
28
07
D6
03
E3
05
2F
D9
DB
3A
D3
EF
1F
CD
F3
F0
F2
EC
D9
10
05
36
1C
D8
34
36
F9
2C
D5
12
E7
FC
F9
1C
01
D7
DD
CE
14
FD
3A
24
E2
E4
E6
18
CF
10
26
D3
13
01
1C
12
E9
E7
0E
CA
F2
11
1B
D3
C8
E4
36
0E
F9
C8
F0
CC
FB
E7
FE
CC
29
E8
CD
DE
1C
EA
1E
C9
17
E9
FE
38
08
2E
17
06
F5
19
E2
34
17
EC
15
DC
EC
D7
FD
F4
40
37
F5
FF
38
2D
E4
32
EA
CF
09
F5
0D
E0
03
CD
CE
35
1D
E6
FC
D7
21
11
DC
DF
F4
1F
0B
E9
E4
E2
36
F5
2E
E5
14
1A
CD
31
FC
3A
D6
CA
34
28
F5
F1
27
D6
35
CA
37
1F
C9
D4
DA
CD
EA
13
EF
2F
29
D4
07
2A
1C
F8
C9
20
35
23
DB
D8
E6
23
32
D9
DE
30
D5
15
D8
D1
E1
C9
D1
34
18
31
22
25
29
EC
36
FF
12
12
05
F7
39
FE
0F
EF
DE
0D
C9
10
24
FA
FB
1F
21
07
EA
FC
EF
34
D2
20
DF
30
DE
39
26
1E
04
03
33
30
3A
0C
E9
F3
2F
1F
CF
18
0F
3A
D1
08
F2
06
1A
FE
C5
36
E2
15
CF
02
C9
FF
0F
0C
27
20
E4
E4
37
EA
28
D5
E8
EE
16
40
25
D4
D1
1C
29
21
F7
20
D8
1B
E2
19
DB
E4
EC
D3
E3
38
F2
CE
D8
FD
22
E3
CF
37
CC
2D
F7
18
2E
ED
F7
09
D1
0F
F0
ED
32
2D
EF
2D
CB
2B
CB
27
E7
2C
F9
D2
F0
01
CB
21
E5
20
17
1F
F9
35
D5
17
D6
22
11
FD
CF
D1
23
20
3A
C5
DA
FE
FA
32
FB
CE
13
1A
EA
27
F2
E0
34
03
E3
DE
DA
22
2E
E2
2D
E7
30
2A
E9
38
29
D7
21
F2
F7
1E
30
34
1E
E8
E3
EB
CF
CC
FB
EE
EA
11
0D
F0
31
12
20
23
FE
30
F6
27
EF
D8
D5
2F
FA
E9
E2
27
25
FC
0D
10
F9
05
2C
01
C8
17
34
34
3B
D7
16
1C
E0
25
FC
23
DE
19
CC
36
04
C9
DF
E6
DC
D7
FD
D8
0C
D0
12
D4
2D
E7
CF
19
DE
FB
D0
11
DF
F9
DC
DD
CD
E7
1A
18
FB
D3
4A
C1
D0
1C
1F
01
FE
FB
20
18
D0
C3
C9
FB
FF
37
EC
FF
02
FF
05
19
CA
E3
E1
EA
12
1A
3A
3A
07
F8
EA
C0
10
41
F1
30
EC
CF
3C
1F
F8
E3
2D
08
2C
CE
F2
DD
38
D8
E9
09
DA
D9
D1
10
0F
E6
38
37
1A
21
D3
07
34
06
0E
EB
C5
30
E0
39
2C
F9
26
CB
D3
C9
DA
19
DF
C6
F0
28
DB
C3
C4
F0
19
2D
DA
08
36
CB
E5
C9
EA
E0
1C
28
17
2C
F3
1F
2A
2D
29
C9
EB
30
34
25
11
1F
27
25
DA
E6
C8
E8
0E
1D
14
E6
36
EE
EE
32
E9
35
DB
DC
13
2A
1A
0E
28
2F
2A
D5
13
27
18
C9
17
C6
15
EB
E3
D9
FD
FB
11
C6
EC
28
C7
FB
18
1C
1A
15
CD
CF
D3
22
0F
17
04
07
E0
30
20
ED
F2
CE
25
0D
EA
CB
F3
30
D9
06
0C
FB
D8
D2
29
03
12
03
20
1F
C9
E2
07
19
30
23
F0
0B
23
EA
07
30
EE
34
F4
D2
33
02
F6
2A
2B
18
1F
22
39
06
E8
06
CF
ED
2C
CA
05
0D
E7
FC
CD
2B
37
12
14
D4
2B
2D
22
21
F3
17
E7
F9
19
D8
CB
CE
EA
2E
14
C5
28
03
DB
12
DC
06
EF
D1
DD
0A
0A
C7
32
2A
FB
D7
16
25
D1
FD
22
27
ED
27
36
D4
D1
E2
E8
F9
2A
10
21
F7
28
37
F6
D6
F0
1A
1B
F7
C9
D4
E3
ED
D7
2F
11
0A
E6
2F
1A
3C
2A
22
02
1E
D6
1B
C6
FD
35
17
1E
CF
F1
EA
2A
D3
2A
E5
2D
CA
C7
D0
DF
0F
38
F9
FD
2D
E1
D1
F6
2A
2F
09
11
21
DC
09
33
3A
E8
D0
23
E2
DC
D4
0F
1C
2A
0D
C5
FC
1E
E2
CE
17
DD
2B
DD
17
09
18
0B
FE
E5
0E
EE
15
CA
19
E7
F5
DF
07
37
1D
F9
06
FE
23
C8
C6
C5
00
F9
CA
28
1F
17
10
E3
DB
14
11
EA
E7
C8
C8
DE
20
28
F3
04
07
22
30
E3
07
CD
D7
15
CD
36
F3
D3
E3
3A
0A
30
D0
E1
0D
D6
C5
15
04
EA
29
34
E2
13
CD
EB
3B
25
1B
F5
12
DF
EC
DA
1D
E2
1D
33
C4
25
CC
18
08
D6
3B
38
E0
EE
E3
F9
C6
C9
15
2A
3F
2D
2A
DA
20
E7
D8
36
05
27
C6
D4
23
F3
1E
CB
ED
F4
38
1F
E5
DB
06
07
0C
E0
D9
18
27
02
F2
3F
F7
C7
C6
D0
F1
16
14
2B
31
3E
33
ED
E9
EF
C1
E5
06
04
24
3A
D4
F5
1D
D0
20
CD
FD
2E
E7
E8
D9
29
26
13
06
D4
29
0C
2E
D7
18
0F
18
CA
F9
DC
E2
16
DE
27
23
36
C8
CE
21
08
CC
D1
F2
CE
EB
DF
34
ED
0A
3A
D3
CE
E5
25
2E
1A
CC
CE
2B
D3
FE
D5
0D
F2
CE
CC
E6
13
FA
37
CB
E2
13
E5
DD
0E
03
25
F2
DA
16
17
FC
EE
FF
15
C6
38
21
37
0D
37
F7
E2
E4
26
D2
C5
C8
D4
26
F8
06
E0
29
2F
1D
F7
FC
21
1A
07
15
11
1E
1C
05
FA
D6
D0
ED
2F
FF
25
04
F4
2F
DA
30
02
16
F5
34
32
F1
11
EA
08
11
CB
25
F8
DB
F2
34
D2
32
D2
CA
EA
CB
35
37
ED
03
CE
F3
D8
EB
38
18
19
E5
12
1F
2E
18
20
0D
E6
D8
E4
0B
F0
35
02
C7
F7
E3
1C
20
28
27
38
27
17
1D
2C
F2
CC
C6
C9
E9
EE
E1
17
F5
CB
E9
D6
31
D1
C9
C5
C9
D1
18
EC
11
30
36
1F
CB
2F
E0
05
D1
C6
EC
31
EA
FE
CA
10
F9
39
30
3A
21
2C
D3
38
EE
D8
EB
3C
ED
3D
4B
49
02
35
23
12
29
CE
E0
F3
B7
BC
E6
17
23
37
CC
D4
DC
35
FF
1C
10
E3
EC
DA
E1
D8
EB
FA
F4
28
39
0E
37
35
EF
34
2B
2B
F0
DF
EF
16
06
12
2A
0B
E8
E7
08
E1
0D
2B
ED
1C
E0
CA
DD
C8
37
36
DB
FC
22
C5
06
09
E0
ED
C6
0D
D8
28
D8
39
28
28
F2
E7
D5
06
24
EF
FA
D4
E7
38
25
0D
3E
CF
FB
40
C4
09
C7
04
E3
C9
35
F6
11
CA
F6
28
02
3A
F4
2D
3D
10
D7
2F
F7
C4
F3
46
C6
EC
38
01
D1
EE
2E
EA
0A
1B
C8
18
C6
22
32
2C
CE
D9
ED
03
D5
09
01
D5
C7
30
DD
FF
28
2C
FE
11
C5
26
1A
E7
D6
CE
EF
ED
FF
CA
ED
EB
2D
27
02
03
12
1B
20
E1
07
05
1F
1D
04
37
09
F2
09
05
24
DB
38
34
25
C5
ED
E8
24
F8
27
D4
3B
E4
FA
C9
FC
E9
CE
19
2B
03
14
25
25
C1
13
C6
34
16
DB
3B
F9
E9
CA
34
C8
EA
1B
FC
0E
41
11
05
E1
CA
C6
12
27
26
F3
05
13
41
37
33
31
41
2F
FF
36
29
CF
CA
D5
FC
13
0A
DB
09
FB
01
FD
DD
38
F9
34
20
0B
01
EC
00
CB
CA
34
FB
16
1C
EA
25
ED
D0
D3
E1
CE
0F
DB
21
DF
0F
C6
30
1E
FB
24
D5
2A
F6
10
DB
D4
E6
0D
E8
15
20
DF
04
0D
D9
10
16
E3
E5
CD
22
1F
D2
13
20
EF
0D
C9
D9
09
E8
E1
3C
DD
36
30
0B
21
05
F5
3B
D5
04
CD
CF
C8
D4
F7
2B
35
13
21
EB
E2
D6
28
DA
ED
C4
FF
F1
FC
36
1C
3A
EB
17
19
F4
CB
DC
C9
C8
3D
06
19
F1
10
E5
D3
16
E8
FC
02
14
1C
F2
00
D6
F5
1F
C7
F1
D6
FC
D6
C3
CD
01
02
0A
D6
E0
04
EB
38
E6
F9
38
0F
F0
F6
F9
DD
F4
EA
1D
D4
33
12
EA
F0
CD
F0
EA
34
F7
10
27
1D
23
F8
2C
0A
37
20
D8
44
CC
15
FA
EC
FD
D9
CE
05
E9
C9
07
26
E5
12
F5
09
05
30
E1

